{"##jhl": 29001, "electrons": 15057, "killed": 2730, "characterized": 7356, "revisited": 24354, "##ara": 5400, "pitt": 15091, "simplified": 11038, "wet": 4954, "eighteenth": 12965, "##\u09be": 29914, "rear": 4373, "hum": 14910, "\u110a": 1462, "cured": 21391, "disciplines": 12736, "patio": 19404, "bloomfield": 25584, "##elo": 18349, "available": 2800, "cowboy": 11762, "nominations": 9930, "personal": 3167, "\u25aa": 1618, "configurations": 22354, "vishnu": 17647, "##hop": 18471, "titans": 13785, "exceeding": 17003, "existed": 5839, "passport": 12293, "multiple": 3674, "nhs": 17237, "##\u1d64": 30044, "hounds": 27772, "chow": 20209, "##\u00bb": 29663, "movies": 5691, "gregory": 7296, "##\u21c4": 30117, "505": 28952, "dragon": 5202, "downloads": 22956, "bea": 26892, "##kong": 25460, "[unused390]": 395, "become": 2468, "revenge": 7195, "amalgamation": 21968, "listings": 26213, "##person": 27576, "[unused530]": 535, "santos": 11053, "utah": 6646, "\u11af": 1486, "populated": 10357, "ensued": 18942, "##riation": 18769, "merton": 28169, "francs": 24313, "snoop": 29044, "surprise": 4474, "attested": 18470, "irene": 12855, "metabolic": 21453, "avenues": 20859, "specifically": 4919, "##ntino": 25318, "reclamation": 27389, "agrees": 10217, "hamlet": 8429, "exercise": 6912, "##ided": 14097, "static": 10763, "[unused961]": 966, "##neo": 23585, "##)": 29620, "bosnia": 9562, "nah": 20976, "richard": 2957, "mangrove": 29340, "blanca": 27538, "1600": 14883, "deutschland": 28668, "publishers": 8544, "biker": 28988, "##held": 24850, "satellite": 5871, "rush": 5481, "navigation": 9163, "andersson": 28643, "##arns": 23549, "of": 1997, "##\u2081": 11871, "reckon": 29072, "fiancee": 19455, "##oc": 10085, "##berman": 23991, "cornwall": 10387, "##valent": 24879, "knicks": 27817, "\u0456": 1213, "trades": 14279, "##list": 9863, "vortex": 23463, "boots": 6879, "12th": 5940, "pharaoh": 22089, "ying": 20879, "lawsuit": 9870, "tens": 15295, "divide": 11443, "stove": 16247, "##dini": 26039, "th": 16215, "baronet": 8693, "exclude": 23329, "\u02b3": 1142, "plate": 5127, "murals": 19016, "personalities": 12857, "blend": 12586, "it": 2009, "ants": 16111, "dioceses": 26586, "\u53e4": 1789, "healed": 15027, "##to": 3406, "travelling": 8932, "##cola": 26289, "jia": 25871, "circa": 12800, "mechanically": 27846, "wondered": 4999, "##opsis": 22599, "sumner": 23922, "kai": 11928, "##bba": 22414, "sporadic": 24590, "nguyen": 16577, "starring": 4626, "1935": 4437, "upheld": 16813, "fates": 26417, "bride": 8959, "sociological": 24846, "beach": 3509, "##vere": 28943, "supportive": 16408, "restrained": 19868, "commissions": 13239, "serve": 3710, "manly": 19385, "\u00b2": 1082, "yes": 2748, "carol": 8594, "rediscovered": 26733, "slam": 9555, "##ners": 16912, "necklace": 13016, "holloway": 20977, "##plication": 21557, "##\u9999": 30505, "##nier": 14862, "tudor": 15588, "##box": 8758, "uncanny": 28953, "speech": 4613, "1729": 28449, "utilization": 27891, "##dez": 24601, "stool": 14708, "busch": 15840, "1779": 17616, "notably": 5546, "cheung": 22632, "messengers": 28938, "challenge": 4119, "investigators": 14766, "archangel": 28185, "reagan": 11531, "bloom": 13426, "personality": 6180, "conspicuous": 19194, "##ures": 14900, "vhs": 17550, "##utus": 23998, "xiao": 19523, "babylonian": 26990, "##around": 24490, "##een": 12129, "##boy": 11097, "##ulsion": 23316, "wainwright": 25305, "lyrics": 4581, "##hler": 13620, "comfortably": 18579, "pretended": 14688, "avenue": 3927, "consists": 3774, "jewels": 15565, "rousseau": 26868, "##kov": 7724, "randy": 9744, "tray": 11851, "obe": 15578, "variable": 8023, "1660": 17954, "tabitha": 21581, "objectives": 11100, "internship": 22676, "dorothea": 24052, "judicial": 8268, "invitation": 8468, "##\u91ce": 30489, "hunts": 28526, "[unused104]": 109, "rotational": 25254, "borrowing": 23733, "trailers": 21389, "shapiro": 24630, "enroll": 25612, "beneficial": 15189, "progression": 14967, "inspected": 20456, "reduced": 4359, "mechanisms": 10595, "[unused314]": 319, "##s": 2015, "##ki": 3211, "ezio": 23043, "handbook": 14812, "\u5bb6": 1825, "[unused580]": 585, "##aceae": 18339, "\u529b": 1778, "##il": 4014, "minors": 18464, "goalkeeper": 9653, "verona": 20197, "somerville": 27209, "outgoing": 22011, "strip": 6167, "##roy": 13238, "\u0561": 1219, "ang": 17076, "\"": 1000, "##cture": 14890, "passionate": 13459, "##ured": 12165, "squeak": 29552, "##gies": 17252, "weary": 16040, "centralized": 22493, "sculptures": 10801, "metadata": 27425, "porsche": 16099, "controllers": 21257, "grimsby": 24470, "topology": 19587, "plush": 27729, "colleen": 28385, "promise": 4872, "outrage": 19006, "##phones": 19093, "barre": 23189, "condor": 29260, "chennai": 12249, "##hiti": 27798, "[unused937]": 942, "approximate": 15796, "hard": 2524, "dutton": 28784, "run": 2448, "hawaiian": 12188, "2014": 2297, "transporting": 18276, "##berger": 14859, "##ura": 4648, "amazon": 9733, "instrument": 6602, "gaul": 26522, "##uez": 29488, "dart": 14957, "##most": 11800, "transferred": 4015, "resented": 27188, "agitation": 22356, "exceeds": 23651, "casually": 13217, "exchange": 3863, "\u0995": 1353, "crimea": 21516, "##ley": 3051, "talented": 10904, "mughal": 17877, "permits": 14245, "monitoring": 8822, "##\u222a": 30132, "advertisement": 15147, "1992": 2826, "ata": 29533, "331": 27533, "descriptive": 22726, "332": 29327, "[unused215]": 220, "marko": 28003, "##due": 20041, "vapor": 20064, "doctors": 7435, "adventures": 7357, "vaughan": 14461, "vase": 18781, "##ament": 24996, "farming": 7876, "##hend": 22342, "##raction": 25533, "inhabited": 9613, "##baldi": 28807, "batch": 14108, "flickering": 20046, "geologic": 22125, "##sai": 15816, "approve": 14300, "darling": 9548, "phosphorus": 25473, "isolated": 7275, "fighters": 7299, "kamal": 21911, "renewal": 14524, "##imeters": 28136, "##thed": 23816, "demolished": 7002, "##nail": 25464, "1300": 19527, "##\u0b9a": 29919, "persecuted": 27666, "tabloid": 24173, "##urai": 24804, "##\u0629": 19433, "[unused273]": 278, "recapture": 27639, "instructions": 8128, "mustache": 28786, "siberia": 16881, "##uze": 20395, "pathology": 19314, "stevenson": 13636, "##ule": 9307, "superintendent": 9133, "##chase": 26300, "arc": 8115, "##oning": 13369, "##trix": 29184, "dt": 26718, "encountered": 8567, "swans": 26699, "\u1162": 1471, "values": 5300, "slaughter": 14574, "cable": 5830, "boyer": 23456, "simulcast": 20525, "nominated": 4222, "settlement": 4093, "294": 28135, "##lord": 19980, "##mple": 23344, "vu": 24728, "leaders": 4177, "sums": 20571, "slowed": 9784, "saloon": 17078, "melville": 20154, "52nd": 26898, "##made": 21565, "bengal": 8191, "compton": 18592, "regan": 16964, "##kley": 22315, "vamps": 24064, "seizures": 25750, "[unused744]": 749, "audio": 5746, "philip": 5170, "alleviate": 24251, "cork": 8513, "receipts": 28258, "##frid": 27439, "contestants": 10584, "165": 13913, "emir": 23434, "weird": 6881, "##jad": 27875, "bone": 5923, "\u5929": 1811, "proximity": 10039, "edward": 3487, "malaga": 27382, "##dridge": 21482, "\u208a": 1557, "abandoned": 4704, "barrel": 8460, "played": 2209, "##tman": 22942, "reinforcements": 14214, "\u092d": 1330, "\u043a": 1189, "motorway": 13119, "abused": 16999, "pits": 14496, "cynical": 26881, "mahal": 27913, "##lands": 8653, "arousal": 18905, "##rva": 19146, "arbor": 19679, "climbing": 8218, "transportation": 5193, "refers": 5218, "benefit": 5770, "##flict": 29301, "1643": 25534, "assemble": 21365, "fixture": 15083, "relaunched": 26391, "edited": 5493, "grows": 7502, "wurttemberg": 16346, "adaptation": 6789, "palma": 23985, "##vis": 11365, "##mist": 23738, "sorted": 19616, "[unused343]": 348, "##pins": 27915, "discus": 26047, "wingspan": 9635, "metis": 26057, "##nam": 13129, "##istle": 24242, "explode": 15044, "salisbury": 13817, "district": 2212, "twelfth": 11313, "labs": 13625, "laws": 4277, "misty": 15167, "danube": 16212, "\u3089": 1685, "abnormal": 19470, "rebuild": 14591, "rack": 14513, "navigator": 20532, "ssr": 20896, "papa": 13008, "##tara": 27115, "\u3059": 1658, "salvation": 12611, "gunn": 22079, "staple": 18785, "restrain": 28467, "standalone": 26609, "psychiatric": 13691, "[unused557]": 562, "everyday": 10126, "##sur": 26210, "##rl": 12190, "##ham": 3511, "firefighters": 21767, "ipswich": 15435, "bce": 10705, "fresco": 26991, "tia": 27339, "pets": 18551, "rope": 8164, "##uz": 17040, "\u0dc0": 1407, "select": 7276, "ace": 9078, "smyth": 28103, "consul": 11801, "##wig": 16279, "##\u0192": 29675, "absorption": 16326, "##\u092e": 29867, "translators": 28396, "ebony": 27680, "children": 2336, "exposition": 13080, "jeopardy": 26604, "huron": 21899, "[unused818]": 823, "worship": 7425, "league": 2223, "1692": 28622, "##lvis": 28530, "\u677e": 1880, "\u3086": 1683, "explanations": 17959, "smiley": 27420, "de": 2139, "rabbit": 10442, "##\u2c7c": 30157, "publishes": 12466, "bury": 11010, "private": 2797, "mistaken": 13534, "proxy": 24540, "1883": 7257, "##max": 17848, "commentary": 8570, "glued": 22805, "hairy": 15892, "guernsey": 24640, "midwest": 13608, "##\u0997": 29891, "eki": 23174, "remake": 12661, "wounded": 5303, "sons": 4124, "##urse": 28393, "nicknamed": 9919, "formed": 2719, "##xy": 18037, "tyre": 21904, "##70": 19841, "rave": 23289, "burnt": 11060, "##of": 11253, "educating": 25088, "linnaeus": 21610, "usher": 20774, "finest": 10418, "seventh": 5066, "tides": 22487, "notch": 18624, "facility": 4322, "stupid": 5236, "alexandre": 16971, "slots": 19832, "\u30eb": 1733, "irresistible": 27149, "textbooks": 18841, "screenwriter": 11167, "announcing": 13856, "bulbs": 25548, "owls": 22388, "immense": 14269, "##vik": 13309, "nora": 12306, "tt": 23746, "##powering": 23948, "passenger": 4628, "62": 5786, "awarded": 3018, "frozen": 7708, "told": 2409, "\u2099": 1568, "tame": 24763, "limo": 23338, "rana": 22175, "conrad": 10931, "occurred": 4158, "##or": 2953, "##\u3059": 30184, "wrong": 3308, "##bane": 27543, "tina": 11958, "applying": 11243, "distribute": 16062, "##wood": 3702, "163": 17867, "kc": 21117, "icao": 18055, "260": 13539, "[unused239]": 244, "loads": 15665, "##leader": 19000, "rebound": 27755, "hubbard": 16580, "gig": 15453, "fabrics": 25123, "##lei": 23057, "iq": 26264, "warsaw": 8199, "##eville": 21187, "mozart": 13177, "##nist": 26942, "alsace": 24922, "advisor": 8619, "[unused878]": 883, "fis": 27424, "heat": 3684, "##fi": 8873, "\u2083": 1550, "adventurous": 29118, "pediatric": 23614, "florida": 3516, "siegel": 27996, "##ach": 6776, "akbar": 20730, "neo": 9253, "ideals": 15084, "coloration": 28757, "con": 9530, "##buch": 25987, "identification": 8720, "hulk": 16009, "starting": 3225, "weeds": 20777, "stake": 8406, "manipulate": 17708, "##krishna": 23017, "senators": 10153, "country": 2406, "debuts": 26740, "sleeps": 25126, "##tries": 21011, "outstretched": 21059, "cis": 20199, "##bourg": 20431, "graceful": 19415, "jack": 2990, "diplomatic": 8041, "##rricular": 21231, "monastic": 17361, "celia": 18020, "ballast": 28030, "peasants": 13193, "talents": 11725, "relation": 7189, "[unused664]": 669, "bridges": 7346, "grassland": 20331, "[unused466]": 471, "offer": 3749, "##culus": 28703, "ugly": 9200, "celine": 24550, "exclaimed": 12713, "##\u5bbf": 30352, "visits": 7879, "vittorio": 25914, "rihanna": 25439, "aft": 16638, "sioux": 16615, "##\u05e7": 29810, "##nay": 16741, "detainees": 26485, "physician": 7522, "##note": 22074, "##ist": 2923, "antilles": 27695, "indonesian": 9003, "mccartney": 15320, "investing": 19920, "elderly": 9750, "[unused440]": 445, "##rland": 18324, "[unused355]": 360, "application": 4646, "chores": 27091, "that": 2008, "ke": 17710, "ideology": 13165, "extent": 6698, "##aw": 10376, "##rigue": 27611, "##mora": 22122, "contributing": 8020, "quartet": 8530, "##omy": 16940, "joyah": 27098, "showdown": 24419, "ranch": 8086, "recipients": 15991, "eastward": 17318, "gloves": 11875, "recruitment": 15680, "##care": 16302, "debbie": 16391, "295": 21679, "##ndra": 17670, "garments": 21902, "oversight": 15709, "generally": 3227, "remote": 6556, "line": 2240, "constance": 15713, "##heads": 13038, "seduce": 23199, "mason": 6701, "##sso": 24137, "fireworks": 16080, "lbs": 20702, "generals": 11593, "gb": 16351, "presenter": 10044, "schubert": 24645, "maria": 3814, "vessels": 6470, "##dote": 23681, "unaffected": 24720, "lakes": 6597, "herr": 23506, "combined": 4117, "console": 10122, "efficient": 8114, "hourly": 21462, "vacuum": 11641, "birds": 5055, "fulfilled": 16829, "##\u0274": 29690, "orphan": 18211, "##\u201a": 30057, "joint": 4101, "comprehend": 22346, "hang": 6865, "colts": 14390, "##hering": 22658, "retreated": 11672, "item": 8875, "app": 10439, "sec": 10819, "resolved": 10395, "liberalism": 26505, "arrests": 17615, "mixture": 8150, "##om": 5358, "palestine": 8976, "##yx": 17275, "meaningful": 15902, "schneider": 15159, "pixel": 22138, "he": 2002, "guarantee": 11302, "jonathan": 5655, "bangkok": 12627, "##9": 2683, "peshawar": 28777, "insert": 19274, "helicopter": 7739, "discarded": 15105, "capable": 5214, "keep": 2562, "##\u4e0d": 30270, "parallel": 5903, "appropriated": 29223, "parameter": 16381, "##iation": 18963, "[unused449]": 454, "##rily": 11272, "jc": 29175, "scholars": 5784, "greatly": 6551, "indifferent": 24436, "lithuanian": 10333, "3a": 23842, "mirage": 21483, "critically": 11321, "char": 25869, "156": 16734, "##ova": 7103, "encyclopedia": 12204, "gate": 4796, "goddard": 22547, "hellenistic": 27464, "discrimination": 9147, "canada": 2710, "nwa": 15737, "vila": 23840, "psychology": 6825, "##stead": 25647, "concentration": 6693, "bound": 5391, "protector": 16167, "##issa": 21205, "kelsey": 21004, "marseille": 16766, "bank": 2924, "amended": 13266, "##\u0e2a": 29956, "letterman": 26593, "##now": 19779, "##ish": 4509, "departments": 7640, "234": 22018, "white": 2317, "##\u53f2": 30316, "frustration": 9135, "profile": 6337, "freed": 10650, "##sure": 28632, "reich": 14365, "diving": 9404, "##at": 4017, "tricked": 24929, "teens": 13496, "eaten": 8828, "reproduction": 14627, "overturned": 17068, "passage": 6019, "nolan": 13401, "nj": 19193, "78": 6275, "amount": 3815, "syntax": 20231, "clicked": 13886, "##erus": 21608, "forgive": 9641, "marrying": 13516, "pack": 5308, "[unused446]": 451, "590": 25186, "check": 4638, "sanity": 20039, "browning": 18778, "helmet": 10412, "idle": 18373, "endangered": 10193, "##\u27e9": 30156, "acquisition": 7654, "##chal": 18598, "##analysis": 25902, "##arian": 12199, "frequented": 24832, "tunisia": 13437, "28": 2654, "sock": 28407, "warp": 24136, "judy": 12120, "explosive": 11355, "sideways": 12579, "attack": 2886, "perth": 9300, "##int": 18447, "##duction": 16256, "\u53f2": 1790, "##rret": 27032, "suffrage": 15178, "##zzo": 12036, "dvds": 22477, "proportional": 14267, "intercollegiate": 21587, "##ctor": 16761, "insertion": 23851, "bent": 6260, "province": 2874, "##bau": 27773, "##\u10d9": 29982, "##ista": 11921, "upside": 14961, "pressing": 7827, "bump": 16906, "pale": 5122, "mcgraw": 24179, "haul": 14655, "intermittent": 23852, "strive": 29453, "premises": 10345, "noun": 15156, "##cina": 28748, "##park": 14432, "good": 2204, "##yla": 23943, "jase": 18626, "permanent": 4568, "provided": 3024, "necessitated": 29611, "latham": 28737, "##ati": 10450, "movement": 2929, "monument": 6104, "##wil": 29602, "\u0997": 1355, "\u2208": 1596, "groin": 20092, "reservation": 11079, "##wled": 28365, "kennedy": 5817, "beth": 7014, "cooke": 16546, "solos": 24339, "##lifting": 26644, "proposal": 6378, "castles": 15618, "730": 28004, "680": 23944, "##\u6cb3": 30425, "yours": 6737, "racks": 27259, "##unes": 26639, "clean": 4550, "consecration": 24730, "sling": 27076, "1902": 5774, "predominantly": 9197, "browser": 16602, "mae": 11530, "\u03bd": 1167, "##66": 28756, "collections": 6407, "furrowed": 20555, "militant": 16830, "6th": 5351, "afraid": 4452, "columns": 7753, "##ux": 5602, "525": 25621, "##\u51fa": 30300, "siren": 19558, "lancaster": 10237, "opens": 7480, "mommy": 20565, "[unused589]": 594, "truly": 5621, "kicking": 10209, "booked": 17414, "##using": 18161, "centre": 2803, "##felt": 26675, "321": 24030, "##tsk": 29064, "design": 2640, "oversaw": 14105, "\u5e1d": 1838, "##\u3093": 30217, "##holders": 17794, "##pment": 24073, "discovery": 5456, "[unused810]": 815, "heart": 2540, "flood": 7186, "importantly": 14780, "restricting": 26996, "[unused754]": 759, "##agger": 27609, "coordinating": 19795, "volumes": 6702, "woodlands": 19268, "fei": 24664, "first": 2034, "##logy": 6483, "\u3088": 1684, "[unused640]": 645, "geschichte": 28299, "111": 11118, "minerva": 27383, "isles": 14195, "couch": 6411, "##\u660e": 30391, "meg": 12669, "##oft": 15794, "homosexuality": 15949, "rub": 14548, "##ouring": 27897, "##gli": 25394, "monuments": 10490, "kerman": 24500, "environment": 4044, "donovan": 12729, "\uff0e": 1991, "##ja": 3900, "brittle": 24650, "opaque": 28670, "begs": 27591, "##gned": 19225, "appendix": 22524, "cup": 2452, "bahamas": 17094, "sketches": 12741, "inspecting": 29508, "quentin": 15969, "\u5834": 1806, "garner": 18661, "marissa": 22767, "##le": 2571, "platt": 28005, "##\u00aa": 29653, "testament": 9025, "earls": 27371, "room": 2282, "##physics": 15638, "sniffing": 27646, "languages": 4155, "tossed": 7463, "##titles": 27430, "perception": 10617, "heal": 11005, "desperately": 9652, "ash": 6683, "claw": 15020, "m3": 29061, "bangalore": 14022, "depended": 17292, "norway": 5120, "##apa": 22068, "pods": 26723, "portuguese": 5077, "##ptic": 20746, "brad": 8226, "\u795e": 1925, "1960": 3624, "##\u00a3": 29646, "mattered": 13836, "kissing": 7618, "ballet": 7250, "accessories": 16611, "##\u03b5": 29723, "nay": 29349, "##vana": 27313, "nino": 20801, "ally": 9698, "atrium": 26204, "meadow": 13244, "proportion": 10817, "[unused795]": 800, "coating": 18898, "gurney": 25061, "forums": 21415, "##lers": 12910, "steward": 17946, "missionaries": 11743, "family": 2155, "algebra": 11208, "moderate": 8777, "bis": 20377, "verde": 16184, "numbered": 8597, "yang": 8675, "ultimate": 7209, "shows": 3065, "hudson": 6842, "optic": 22816, "##\u516c": 30298, "##ht": 11039, "cut": 3013, "huffington": 26149, "##hg": 25619, "##\u02e4": 29719, "pianist": 9066, "##\u043a\u0430": 28598, "sawmill": 24744, "##cise": 18380, "house": 2160, "giggling": 21783, "parties": 4243, "exemplified": 28593, "skin": 3096, "anomaly": 28685, "jet": 6892, "\u00a3": 1069, "[unused363]": 368, "ferries": 20157, "##mg": 24798, "stair": 23788, "facilitating": 25505, "expecting": 8074, "habitats": 10746, "allotted": 23932, "caribbean": 7139, "##\u0445": 29750, "intending": 16533, "kant": 26044, "agency": 4034, "recommend": 16755, "honduras": 14373, "teenage": 9454, "fleeting": 25085, "##tern": 16451, "muttering": 22581, "##fia": 22749, "rutherford": 18472, "bubba": 19606, "bei": 21388, "porch": 7424, "smooth": 5744, "govern": 21208, "poverty": 5635, "kickoff": 25233, "counsel": 9517, "frustrated": 10206, "socialism": 14649, "greyish": 26916, "citation": 11091, "\u52a0": 1779, "planes": 9738, "pins": 16300, "maha": 24404, "##enstein": 21819, "chalk": 16833, "rugged": 17638, "just": 2074, "distinctly": 19517, "floods": 14295, "prototypes": 19599, "seller": 14939, "##ili": 18622, "remixes": 15193, "[unused986]": 991, "somme": 25158, "##dev": 24844, "royalist": 20796, "\u6238": 1857, "airing": 10499, "1682": 29478, "mercenary": 22146, "lent": 15307, "alvarez": 16309, "fairfield": 18986, "nationalists": 17934, "antigen": 28873, "rams": 13456, "jake": 5180, "samples": 8168, "ann": 5754, "##dham": 17661, "codes": 9537, "invitations": 29492, "139": 16621, "antoine": 12445, "corporal": 14265, "rosalie": 29564, "traitor": 17328, "[unused888]": 893, "eyebrow": 9522, "gary": 5639, "mata": 22640, "1842": 10008, "scarcely": 20071, "nursing": 8329, "hesitate": 16390, "disorder": 8761, "wish": 4299, "interventions": 19388, "anchors": 24674, "##\u30bb": 30234, "##hedron": 26440, "shield": 6099, "rick": 6174, "salamanca": 29608, "##ffled": 28579, "lodged": 20451, "##mps": 25370, "shelves": 15475, "economy": 4610, "attacks": 4491, "encryption": 21999, "pebbles": 28962, "[unused416]": 421, "rose": 3123, "collection": 3074, "bc": 4647, "ripe": 22503, "accidents": 13436, "complement": 13711, "respected": 9768, "mingled": 25959, "barrister": 19805, "flowing": 8577, "peers": 12746, "##bia": 11607, "amateur": 5515, "erected": 7019, "polynomial": 17505, "creditors": 23112, "typhoon": 15393, "doping": 23799, "convenience": 15106, "ska": 24053, "threatens": 17016, "manipulation": 16924, "vols": 18709, "wink": 16837, "verbal": 12064, "##ol": 4747, "44th": 26409, "tightened": 8371, "milano": 21613, "##sho": 22231, "\u05e2": 1259, "meetings": 6295, "kia": 27005, "memorials": 22899, "##kulam": 28871, "biology": 7366, "stuffed": 11812, "##lance": 23078, "ala": 21862, "242": 22431, "##bara": 20709, "abbreviated": 12066, "rituals": 13549, "inhibition": 23586, "##hh": 23644, "terrified": 10215, "sweetie": 22872, "##ard": 4232, "##nsor": 29577, "tingle": 25792, "possibly": 4298, "[unused243]": 248, "robot": 8957, "physiology": 16127, "##kowski": 15449, "olsen": 18997, "erosion": 14173, "##rup": 21531, "rolling": 5291, "##cker": 9102, "helmut": 24515, "crystals": 14438, "intricate": 17796, "robb": 26211, "sincerely": 25664, "\u05d5": 1246, "##est": 4355, "\u09bf": 1379, "##sia": 8464, "##30": 14142, "laughs": 11680, "rivalry": 10685, "popping": 20095, "boundaries": 7372, "commercials": 12698, "banco": 28678, "monkey": 10608, "retrieve": 12850, "##lde": 17920, "linked": 5799, "##ex": 10288, "ripple": 24644, "celeste": 21113, "michelangelo": 27701, "loki": 24143, "drained": 11055, "33rd": 20883, "dade": 27647, "1830": 9500, "kingdom": 2983, "[unused59]": 60, "amid": 13463, "structure": 3252, "flourished": 17893, "abby": 9460, "drivers": 6853, "gulped": 25411, "remixed": 17574, "##we": 8545, "progress": 5082, "endurance": 14280, "##pt": 13876, "##vira": 24093, "\u1103": 1457, "monkeys": 17059, "recovering": 13400, "[unused514]": 519, "textual": 25304, "[unused731]": 736, "##hore": 16892, "\u21d2": 1591, "cameron": 7232, "iraq": 5712, "##sop": 28793, "appalled": 29279, "zipper": 22082, "##uated": 16453, "palais": 22113, "nsw": 11524, "piles": 18526, "\u30ed": 1735, "1980s": 3865, "greater": 3618, "##cp": 21906, "##vier": 14356, "\u305f": 1661, "battery": 6046, "##vir": 21663, "communal": 15029, "##rize": 25709, "curve": 7774, "##runa": 26605, "shipbuilding": 16802, "paperback": 13611, "phelps": 20475, "[unused946]": 951, "ignored": 6439, "##aks": 29243, "radios": 22229, "import": 12324, "township": 3545, "transatlantic": 26617, "[unused573]": 578, "work": 2147, "residue": 21755, "death": 2331, "pulsing": 23139, "negotiate": 13676, "facades": 28708, "dieter": 27976, "leave": 2681, "hades": 23003, "effects": 3896, "31": 2861, "##vre": 12229, "##sir": 29481, "cache": 17053, "libretto": 17621, "brown": 2829, "##\u90ce": 30484, "##\u7530": 30437, "scribe": 27789, "blossoms": 28766, "desk": 4624, "doin": 24341, "triangular": 14023, "##aine": 18175, "raphael": 12551, "palestinians": 21524, "sleep": 3637, "brunei": 18692, "##pathic": 25940, "lough": 29504, "seriousness": 27994, "keenan": 26334, "commodity": 19502, "catastrophic": 23546, "friday": 5958, "##nie": 8034, "gotham": 22814, "calhoun": 22982, "1800": 9807, "prosecutor": 12478, "vegetables": 11546, "horsemen": 25431, "nominal": 15087, "\u00b0c": 6362, "##stov": 29473, "shelters": 17177, "decent": 11519, "inputs": 20407, "telangana": 23764, "1942": 3758, "##\u570b": 30326, "lauderdale": 23520, "consumers": 10390, "margot": 29210, "##missive": 27876, "atkins": 21087, "\u057f": 1236, "targets": 7889, "legged": 15817, "troubles": 13460, "lid": 11876, "bolivian": 26075, "carter": 5708, "ponds": 16879, "medial": 23828, "[unused653]": 658, "moods": 27824, "sort": 4066, "ridiculous": 9951, "transformations": 21865, "303": 19988, "banjo": 16698, "##\u52a0": 30305, "chiefs": 9058, "##tiv": 29068, "guts": 18453, "gender": 5907, "##nsky": 25655, "junta": 22450, "##agi": 22974, "hurley": 25124, "yards": 4210, "flooded": 10361, "garcia": 7439, "archaeological": 7611, "newspaper": 3780, "february": 2337, "##39": 23499, "benz": 17770, "forward": 2830, "beings": 9552, "concession": 16427, "breakup": 19010, "sargent": 27599, "projecting": 18398, "acceptable": 11701, "moist": 11052, "##\u2026": 30064, "apostolic": 11815, "fair": 4189, "traces": 10279, "##sity": 17759, "middle": 2690, "paradox": 20506, "##\u02e2": 29717, "suddenly": 3402, "falling": 4634, "[unused646]": 651, "plum": 22088, "richter": 20105, "birthday": 5798, "##men": 3549, "cars": 3765, "directed": 2856, "spawned": 18379, "synchronized": 25549, "constitutional": 6543, "terre": 25170, "happiness": 8404, "rounded": 8352, "turn": 2735, "##rgen": 25892, "barry": 6287, "##tique": 28437, "sabrina": 21876, "##14": 16932, "needed": 2734, "dangerously": 20754, "##non": 8540, "chewing": 17492, "##\u0e25": 29954, "##tort": 25485, "poll": 8554, "gemini": 21424, "priest": 5011, "coven": 25248, "cheerful": 18350, "eve": 6574, "juarez": 25398, "gone": 2908, "sinclair": 11881, "aliens": 12114, "nazis": 13157, "\u9577": 1967, "archery": 21383, "custody": 9968, "magdalena": 23984, "moreover": 9308, "ape": 23957, "ib": 21307, "leap": 11679, "doubles": 7695, "recreation": 8640, "##\u02bc": 29712, "exceptions": 11790, "buzz": 12610, "##dun": 27584, "steamboat": 24897, "##growth": 26982, "marylebone": 28537, "ll": 2222, "anglo": 7819, "onions": 24444, "tori": 23413, "##rso": 25301, "arose": 10375, "inducted": 8120, "##no": 3630, "paving": 28007, "fashionable": 19964, "##ash": 11823, "two": 2048, "temperance": 23372, "##uy": 26230, "reassuring": 21093, "teatro": 16038, "discomfort": 17964, "\u201a": 1522, "conservation": 5680, "caf": 24689, "##\u4e95": 30280, "airmen": 29437, "\u1169": 1475, "1769": 20663, "##very": 27900, "webster": 11635, "preceded": 11677, "[unused887]": 892, "##tow": 18790, "##kis": 14270, "parades": 26635, "lastly": 22267, "miriam": 16925, "seeing": 3773, "##lved": 26832, "hovered": 18190, "boeing": 10321, "##nica": 12782, "##eration": 16754, "clothes": 4253, "gorman": 25693, "##mber": 21784, "eastman": 24252, "khan": 4967, "collected": 5067, "\u2082": 1549, "lamb": 12559, "obscured": 23649, "ferocious": 27863, "koln": 28306, "thumbs": 16784, "##laus": 28128, "##para": 28689, "dangers": 16796, "race": 2679, "##by": 3762, "##riders": 28116, "carpenter": 10533, "perez": 10730, "ono": 21058, "scout": 7464, "nomenclature": 23718, "hot": 2980, "minions": 28071, "##zbek": 28733, "adolescence": 29101, "mother": 2388, "standardization": 28648, "unicef": 29073, "[unused779]": 784, "wang": 7418, "##\u3044": 30173, "statewide": 13486, "chu": 14684, "donkey": 20325, "heavy": 3082, "##ostal": 29381, "inland": 9514, "apology": 12480, "\u2018": 1520, "javelin": 23426, "pulp": 16016, "saigon": 24001, "##via": 9035, "vulgar": 29364, "##vious": 24918, "labyrinth": 24239, "##hope": 26441, "##going": 26966, "presents": 7534, "maguire": 26196, "\u03b4": 1158, "airplay": 15341, "scots": 12196, "\u10e3": 1454, "##tang": 26067, "##raya": 29539, "##backs": 12221, "grounded": 16764, "##cher": 7474, "##nh": 25311, "sing": 6170, "advertising": 6475, "kinship": 27866, "minneapolis": 11334, "chong": 24008, "cramped": 22766, "requires": 5942, "wheeling": 29142, "[unused176]": 181, "##gg": 13871, "arrogance": 24416, "dignity": 13372, "connor": 6720, "zone": 4224, "##ophone": 25232, "sage": 10878, "worshipped": 22876, "orchards": 22976, "couples": 6062, "candi": 27467, "##urance": 25863, "##gation": 12540, "portrayed": 6791, "twisted": 6389, "minerals": 13246, "##\u307f": 30204, "panthers": 12915, "kenneth": 8856, "styles": 6782, "##32": 16703, "gretchen": 21625, "insane": 9577, "sands": 13457, "british": 2329, "long": 2146, "opium": 21075, "spaces": 7258, "sly": 18230, "##coll": 26895, "estadio": 14143, "\u09a1": 1360, "##din": 8718, "##nding": 15683, "consent": 9619, "atari": 18978, "fender": 19028, "incapable": 19907, "nassau": 14646, "rivera": 14043, "##wer": 13777, "present": 2556, "captains": 15755, "mccormick": 23213, "pillars": 13766, "##eft": 29218, "consoles": 22659, "tugged": 10621, "interlude": 25347, "humanity": 8438, "provoked": 19157, "ymca": 26866, "basis": 3978, "tripoli": 21841, "[unused306]": 311, "cemetery": 4528, "##ej": 20518, "##tma": 29418, "forcefully": 23097, "hottest": 20930, "##net": 7159, "contacts": 10402, "denton": 23906, "brunswick": 9192, "caliphate": 28034, "hotter": 22302, "trees": 3628, "articles": 4790, "roofs": 15753, "cincinnati": 7797, "rai": 15547, "jazz": 4166, "malacca": 28481, "moines": 23286, "##8th": 28264, "yamaha": 24031, "fading": 14059, "mushrooms": 23827, "belonging": 7495, "##\u6bd4": 30416, "##aneous": 17191, "cousin": 5542, "skip": 13558, "time": 2051, "motorsport": 21044, "##isance": 28138, "issue": 3277, "roots": 6147, "west": 2225, "materialized": 27075, "battling": 17773, "softball": 12585, "flicker": 17909, "brigadier": 9900, "[unused612]": 617, "212": 18164, "##rosis": 29166, "hopeless": 20625, "trends": 12878, "psycho": 18224, "herbs": 17561, "nervously": 12531, "storey": 11676, "cloudy": 24706, "gage": 10012, "[unused984]": 989, "lt": 8318, "slope": 9663, "researching": 20059, "immigration": 7521, "peat": 23366, "assurance": 16375, "ate": 8823, "lukas": 23739, "jacksonville": 13057, "april": 2258, "convincing": 13359, "##well": 4381, "periodically": 18043, "sympathy": 11883, "##fold": 10371, "arya": 26140, "arrested": 4727, "duane": 27319, "capital": 3007, "theaters": 12370, "##cate": 16280, "[unused5]": 6, "lashed": 25694, "gasp": 12008, "##90": 21057, "computational": 15078, "gabby": 27183, "receive": 4374, "##rgh": 27172, "duchess": 11017, "\u6b62": 1887, "committee": 2837, "norwegian": 5046, "norm": 13373, "scope": 9531, "##amine": 19915, "[unused885]": 890, "apparatus": 14709, "reflective": 21346, "infinitely": 25773, "sculpted": 19921, "##itarian": 25691, "alexander": 3656, "meta": 18804, "wes": 14008, "##\u1175": 30019, "##building": 25820, "captain": 2952, "deter": 28283, "soldier": 5268, "participation": 6577, "sudan": 10411, "bot": 28516, "amplifier": 22686, "[unused443]": 448, "hurt": 3480, "remembrance": 19451, "venezuelan": 15332, "antwerp": 14003, "concerto": 10405, "\u826f": 1938, "##eborg": 27614, "twitching": 25402, "player": 2447, "motif": 16226, "beast": 6841, "lc": 29215, "deepened": 20183, "sweater": 14329, "medicines": 20233, "congresses": 24460, "michel": 8709, "meridian": 17984, "##lit": 15909, "closing": 5494, "seismic": 22630, "demoted": 25692, "army": 2390, "sometime": 8811, "brighton": 10309, "tear": 7697, "##\u308b": 30213, "interpreted": 10009, "spit": 13183, "##;": 29628, "mackay": 17090, "##achal": 24409, "eps": 20383, "chandler": 13814, "preserves": 18536, "solely": 9578, "1086": 28196, "priscilla": 25193, "[unused639]": 644, "electors": 19165, "oclc": 12258, "##\u898b": 30474, "pune": 16920, "celtic": 8730, "mast": 15429, "dyer": 23494, "[unused271]": 276, "popcorn": 24593, "saturated": 23489, "marxism": 27255, "march": 2233, "shivering": 19197, "##mount": 20048, "clasped": 16763, "tumbled": 18303, "185": 15376, "##iva": 11444, "disperse": 28736, "ok": 7929, "epoch": 25492, "##abi": 28518, "encompasses": 13974, "diagram": 16403, "purchase": 5309, "jonny": 26937, "stomped": 21918, "##\u4e94": 30279, "287": 23090, "inaccurate": 24949, "ambition": 16290, "westwood": 21730, "declines": 26451, "atheist": 23503, "majestic": 22337, "pictures": 4620, "registry": 15584, "trips": 9109, "rican": 13641, "navarre": 21260, "bought": 4149, "palazzo": 18482, "diplomats": 23473, "premature": 21371, "factories": 11123, "##ddin": 18277, "ego": 13059, "##gia": 10440, "modelling": 19518, "engagement": 8147, "\u2012": 1515, "##rud": 28121, "ashland": 24346, "absolutely": 7078, "treatise": 15326, "fluttering": 25001, "trainers": 21992, "1760": 19096, "##one": 5643, "sax": 19656, "berries": 22681, "foam": 17952, "##\u0bc1": 29933, "psi": 17816, "burlington": 15552, "walls": 3681, "##nitz": 22792, "buttons": 11287, "pga": 14198, "achievement": 6344, "padded": 20633, "christopher": 5696, "##ala": 7911, "reunification": 28044, "initial": 3988, "[unused479]": 484, "drawers": 22497, "canadians": 16485, "##\u0576": 29778, "[unused294]": 299, "cracks": 15288, "harvard": 5765, "butch": 17520, "signage": 29404, "abruptly": 9225, "mined": 21846, "eat": 4521, "##\u221e": 30128, "##ough": 10593, "##une": 9816, "##peed": 25599, "##shot": 19040, "##\u4ecb": 30285, "pastor": 9220, "\u02b2": 1141, "deprivation": 29516, "developments": 8973, "##\u6238": 30383, "counterparts": 14562, "assured": 8916, "confirmation": 13964, "natasha": 17399, "attacked": 4457, "##blood": 26682, "transmissions": 21670, "##cards": 17965, "backed": 6153, "##nator": 27413, "tod": 28681, "iran": 4238, "arching": 27335, "display": 4653, "starters": 29400, "shame": 9467, "##\u22121": 27944, "foyer": 16683, "strolled": 20354, "constitutes": 17367, "##igraphy": 23132, "prevents": 16263, "trillion": 23458, "betsy": 22396, "divers": 18612, "fowler": 14990, "##ield": 12891, "##turn": 22299, "noted": 3264, "##\u2286": 30138, "favorable": 11119, "bedford": 12003, "indicator": 17245, "##abia": 29039, "##otide": 26601, "cisco": 26408, "devastation": 25594, "##tyle": 27983, "##idae": 6096, "[unused476]": 481, "past": 2627, "urging": 14328, "three": 2093, "institutions": 4896, "##kin": 4939, "manson": 21440, "saxons": 28267, "##\u110e": 30001, "policeman": 14460, "##\u6ca2": 30424, "mayors": 21941, "##ears": 26492, "\u026c": 1121, "zee": 23727, "ar": 12098, "##shin": 17426, "##mobile": 17751, "clarinet": 12089, "creole": 21414, "committees": 9528, "mountains": 4020, "broncos": 14169, "prague": 8634, "adoptive": 24787, "since": 2144, "edison": 17046, "teachers": 5089, "crossbow": 28692, "corps": 3650, "glue": 25238, "tyrol": 27193, "projective": 27473, "##ps": 4523, "syriac": 24109, "tuna": 24799, "hon": 10189, "wallis": 24029, "##folia": 21710, "\u02b8": 1144, "smell": 5437, "evidence": 3350, "order": 2344, "polo": 11037, "warn": 11582, "frontiers": 28750, "spun": 7455, "##dhi": 19114, "titular": 12960, "[unused158]": 163, "##owe": 29385, "proposing": 21991, "ulysses": 22784, "##\u10d5": 29979, "norris": 15466, "##stone": 9221, "tenants": 14665, "##iform": 22631, "voluntarily": 17912, "##iro": 9711, "patron": 9161, "nicholls": 27043, "projections": 21796, "##\u2227": 30129, "jaya": 24120, "##\u05d2": 29790, "sw": 25430, "receptionist": 23775, "##iff": 13355, "illustrations": 11249, "##jack": 17364, "sponsor": 10460, "sadie": 21330, "wii": 16568, "authorship": 26324, "charitable": 11128, "painting": 4169, "flyers": 16217, "shift": 5670, "methane": 24481, "cop": 8872, "warrant": 10943, "antennas": 26315, "##gi": 5856, "##pf": 14376, "surrounding": 4193, "prizes": 11580, "questioning": 11242, "1950s": 4856, "millionaire": 19965, "algorithm": 9896, "acted": 6051, "full": 2440, "cv": 26226, "eyebrows": 8407, "##\u6728": 30401, "envy": 21103, "canoe": 14347, "##nad": 25389, "door": 2341, "delilah": 23006, "economies": 18730, "filmed": 6361, "tickets": 9735, "vr": 27830, "##mus": 7606, "pursue": 7323, "interdisciplinary": 18593, "enclosed": 10837, "cave": 5430, "councillors": 13189, "##ulton": 22145, "1625": 26263, "girl": 2611, "[unused859]": 864, "oblast": 10379, "standardized": 16367, "kellan": 19697, "differing": 16965, "superman": 10646, "nec": 26785, "yields": 16189, "repetitive": 23563, "defeats": 14222, "wraps": 19735, "##tions": 9285, "mixtape": 18713, "slowing": 18068, "pinnacle": 26007, "societal": 23382, "alps": 13698, "mode": 5549, "plaster": 15673, "##powered": 27267, "confirmed": 4484, "moscow": 4924, "waller": 23550, "rankin": 25772, "##\u30de": 30249, "counselor": 17220, "beaumont": 16210, "ethical": 12962, "##bino": 21891, "optimal": 15502, "oxford": 4345, "##name": 18442, "sentence": 6251, "tubular": 25147, "blows": 13783, "whirled": 17097, "blades": 10491, "expo": 16258, "##ssler": 23385, "predictions": 20932, "##ogist": 22522, "fenton": 27096, "turkic": 22926, "bounced": 13605, "objected": 15959, "wavelengths": 29263, "walnut": 18489, "vowed": 18152, "##linson": 25051, "##arth": 22425, "helped": 3271, "odessa": 19693, "tide": 10401, "sizable": 25908, "resin": 24604, "airplane": 13297, "##\u093e": 29876, "##enburg": 12059, "999": 25897, "[unused266]": 271, "##ons": 5644, "stroked": 11699, "concerts": 6759, "silesia": 21872, "leading": 2877, "jewellery": 21545, "accidental": 17128, "laughing": 5870, "prompted": 9469, "outskirts": 12730, "rasped": 28459, "sato": 20251, "spreads": 20861, "clerks": 26706, "##\u0915": 29851, "fix": 8081, "##edge": 24225, "##can": 9336, "##nt": 3372, "indian": 2796, "federally": 20892, "river": 2314, "##works": 9316, "attend": 5463, "\u0f53": 1429, "hewitt": 19482, "worker": 7309, "##tology": 23479, "vacated": 15348, "props": 24387, "##jan": 8405, "##\u00be": 29665, "[unused665]": 670, "suns": 19352, "propose": 16599, "carrie": 13223, "wryly": 28325, "squeezing": 15328, "##tain": 18249, "diane": 12082, "##\u10e3": 29990, "##uba": 19761, "620": 23612, "cottage": 9151, "unnamed": 13294, "swap": 19948, "pudding": 29593, "handles": 16024, "chopper": 28057, "kannada": 13873, "##vr": 19716, "##\u0142": 18818, "850": 15678, "stabbed": 13263, "gross": 7977, "213": 19883, "didn": 2134, "introductions": 25795, "burton": 9658, "categories": 7236, "##zers": 16750, "4th": 4343, "frequently": 4703, "swimmer": 13361, "gale": 14554, "##lative": 26255, "##neuve": 28104, "211": 19235, "##\u11bc": 30025, "1786": 17436, "indy": 18214, "compose": 17202, "##not": 17048, "allie": 16944, "crisp": 15594, "obesity": 24552, "dog": 3899, "\u1107": 1460, "piedmont": 18873, "gene": 4962, "##lar": 8017, "##lem": 16930, "implied": 13339, "archers": 23118, "menace": 19854, "frightened": 10363, "marshes": 19257, "chair": 3242, "tonic": 28157, "hurdle": 27630, "reorganized": 14137, "dmitry": 22141, "shortages": 22623, "derek": 7256, "200": 3263, "derbyshire": 15207, "##hman": 13890, "dwelling": 13160, "jennie": 27557, "640": 19714, "bathing": 17573, "restriction": 16840, "skyla": 21738, "##ete": 12870, "##ctions": 22014, "##offs": 27475, "50th": 12951, "bold": 7782, "riff": 24808, "smells": 14747, "##lm": 13728, "1709": 28955, "##ma": 2863, "storylines": 22628, "penetrated": 21653, "interface": 8278, "workout": 27090, "reggae": 15662, "doe": 18629, "stresses": 23253, "faust": 24021, "tyler": 7482, "retail": 7027, "43rd": 25747, "distorted": 19112, "taxis": 25964, "##bon": 11735, "##ester": 20367, "##ahu": 21463, "certain": 3056, "awards": 2982, "fight": 2954, "alton": 26374, "weeping": 19750, "##ciency": 29125, "tong": 15740, "organization": 3029, "entertainer": 21751, "##ngo": 16656, "\u1d47": 1497, "orthodox": 6244, "administering": 28965, "vicinity": 9884, "augmented": 19335, "ronin": 29249, "beverages": 21705, "bodies": 4230, "newer": 10947, "asks": 5176, "labrador": 18604, "disappeared": 5419, "##200": 28332, "##\u7537": 30438, "stopping": 7458, "paint": 6773, "sewer": 22365, "springfield": 10493, "[unused432]": 437, "php": 25718, "dodge": 11898, "alexei": 21219, "##zow": 22670, "1764": 21488, "regimental": 17604, "exeter": 12869, "luke": 5355, "##kari": 20224, "et": 3802, "accountants": 29114, "approximately": 3155, "leads": 5260, "##de": 3207, "married": 2496, "gables": 27008, "##sma": 26212, "##ulent": 27581, "##tam": 15464, "stitches": 25343, "nl": 17953, "##breaker": 21204, "nadu": 10703, "mildly": 19499, "##grant": 18980, "casey": 9036, "receptor": 10769, "##rella": 21835, "##lai": 19771, "specialised": 17009, "victoria": 3848, "dagger": 10794, "surveyed": 12876, "##\u0989": 29886, "lawson": 14577, "disguise": 14249, "protection": 3860, "##\u9234": 30491, "replication": 21647, "fielding": 15452, "[unused881]": 886, "digital": 3617, "poster": 13082, "sport": 4368, "roast": 25043, "maldives": 25059, "nana": 17810, "##hett": 28499, "[unused707]": 712, "##xa": 18684, "posthumously": 12770, "ladder": 10535, "ev": 23408, "written": 2517, "immigrants": 7489, "alongside": 4077, "demonstrate": 10580, "answered": 4660, "##ple": 10814, "toxin": 29090, "infrared": 14611, "##llins": 26655, "72": 5824, "billionaire": 22301, "you": 2017, "guadalajara": 22887, "development": 2458, "jean": 3744, "intentionally": 15734, "compartment": 15273, "\u0282": 1129, "emptied": 21764, "seemingly": 9428, "aidan": 12643, "painful": 9145, "argues": 9251, "hanover": 14393, "##\u0dc0": 29943, "unbeaten": 20458, "bellowed": 27386, "tad": 18819, "brewery": 12161, "##aly": 20766, "inevitable": 13418, "bowler": 14999, "imprisoned": 8580, "communists": 13009, "seasonal": 12348, "marvin": 13748, "##lled": 11001, "##shire": 7430, "284": 26871, "gateway": 11909, "retailer": 20196, "myths": 17218, "attracting": 15411, "asking": 4851, "reassure": 24647, "1954": 4051, "[unused318]": 323, "holders": 13304, "porn": 22555, "distributor": 16632, "epithet": 19626, "ya": 8038, "sorting": 22210, "philosophers": 17586, "native": 3128, "##\u0459": 29762, "buds": 26734, "burr": 22715, "peninsular": 22682, "##\u10d4": 29978, "bacterial": 17341, "erased": 23516, "forgot": 9471, "##gated": 11644, "advertised": 17099, "frog": 10729, "brightest": 26849, "gain": 5114, "1656": 28434, "dormant": 22170, "##\u06cc": 24830, "exploration": 8993, "contaminated": 19450, "trembling": 10226, "analytic": 23521, "custom": 7661, "talon": 19048, "splashed": 22055, "farther": 8736, "monitors": 15410, "bafta": 22284, "##zoo": 23221, "wrought": 18481, "##unk": 16814, "blamed": 11248, "commandos": 25144, "##erved": 25944, "[unused941]": 946, "earthquakes": 17932, "\u0254": 1112, "sections": 5433, "bargaining": 21990, "enhancement": 22415, "[unused175]": 180, "retailers": 16629, "sparks": 12300, "identifiable": 27800, "canberra": 13107, "snowy": 20981, "lawrence": 5623, "alonso": 17649, "ceasefire": 26277, "##uram": 27618, "[unused66]": 67, "pace": 6393, "disappointed": 9364, "pistons": 24399, "##rock": 16901, "##\u1da0": 30047, "socialists": 21633, "requests": 11186, "forgotten": 6404, "busted": 23142, "haji": 28174, "excursion": 26144, "halloween": 14414, "##ows": 15568, "##patient": 24343, "nils": 27282, "##dim": 22172, "vic": 10967, "[unused300]": 305, "develops": 11791, "##gne": 10177, "melody": 8531, "sirens": 20675, "requiem": 21199, "kunst": 28145, "##\u203a": 30068, "verse": 7893, "[unused520]": 525, "\\": 1032, "nanny": 19174, "cupboard": 25337, "thatcher": 21127, "##ques": 10997, "subtle": 11259, "slams": 25967, "miner": 18594, "week": 2733, "clement": 12223, "gibbons": 22194, "##\u00b4": 29658, "meets": 6010, "dripping": 14309, "##qui": 15549, "bari": 22466, "##gb": 18259, "61": 6079, "vi": 6819, "screenplay": 9000, "nor": 4496, "dictator": 21237, "##gration": 29397, "lobbying": 19670, "silently": 8601, "celebration": 7401, "trailed": 11145, "##mian": 20924, "submarine": 6982, "conspiracy": 9714, "tarzan": 24566, "allegiance": 14588, "amman": 25703, "rustic": 27471, "[unused875]": 880, "lass": 27333, "ru": 21766, "porto": 13809, "hopping": 26397, "complaint": 12087, "coulter": 28293, "##mer": 5017, "moon": 4231, "multiplied": 28608, "##\u1d49": 30035, "homme": 26574, "organized": 4114, "holes": 8198, "henrik": 18745, "extends": 8908, "marc": 7871, "##\u0f66": 29972, "pietro": 15541, "##8": 2620, "amara": 28599, "abbott": 14455, "\u27e9": 1630, "musician": 5455, "homogeneous": 24854, "##lch": 29358, "hirsch": 28127, "skeletons": 24365, "retirement": 5075, "objections": 17304, "unmistakable": 24219, "noticeably": 25327, "##llan": 19036, "##ground": 16365, "theorem": 9872, "tamara": 21772, "originates": 16896, "rocks": 5749, "museo": 19713, "sired": 26940, "independently": 9174, "administrations": 27722, "deaf": 12419, "genuinely": 15958, "betrayed": 12056, "u2": 23343, "buys": 23311, "offices": 4822, "yates": 20356, "klan": 26613, "compression": 13379, "##eta": 12928, "connolly": 21018, "bennett": 8076, "truce": 18415, "according": 2429, "definition": 6210, "daylight": 11695, "declined": 6430, "befriended": 23386, "##ups": 22264, "##inus": 13429, "##bb": 10322, "oriental": 11481, "persecution": 14522, "capturing": 11847, "ceded": 19705, "\u10db": 1448, "greet": 17021, "cracking": 15729, "juvenile": 11799, "dawn": 6440, "inspection": 10569, "warehouse": 9746, "##\u5f18": 30369, "paddington": 26318, "nfc": 22309, "\u30c3": 1711, "borders": 6645, "##aka": 11905, "jacqueline": 17551, "##estra": 26199, "angel": 4850, "seekers": 24071, "##physical": 23302, "ripped": 9157, "planning": 4041, "##\u4eee": 30287, "##elial": 24587, "canterbury": 9976, "edition": 3179, "##nted": 14706, "\u6e05": 1903, "excitement": 8277, "psychologist": 15034, "brutal": 12077, "##osing": 18606, "films": 3152, "assassin": 12025, "##mina": 22311, "phantom": 11588, "embodied": 25405, "weaving": 15360, "rica": 11509, "bavarian": 15097, "executed": 6472, "angular": 16108, "##vies": 25929, "globe": 7595, "170": 10894, "##anov": 25417, "holocaust": 11513, "waitress": 13877, "##44": 22932, "greatest": 4602, "ridden": 15230, "morton": 11164, "discreet": 29321, "[unused100]": 105, "computers": 7588, "##\u05e9": 29812, "improvements": 8377, "mina": 19808, "scents": 29254, "handheld": 27291, "##ignon": 24796, "##tters": 24168, "tariff": 23234, "feels": 5683, "extant": 12905, "##cles": 18954, "##\u043e": 14150, "treatment": 3949, "mutants": 23892, "##tarian": 28897, "\u09a8": 1366, "ralph": 6798, "dedicated": 4056, "color": 3609, "##pc": 15042, "amp": 23713, "ot": 27178, "##tase": 18260, "weir": 16658, "[unused167]": 172, "corporate": 5971, "##xes": 20156, "large": 2312, "onslaught": 28644, "hazel": 14015, "undergoes": 29129, "recognizable": 20123, "scandal": 9446, "conditioning": 14372, "battalions": 10157, "primary": 3078, "berman": 29482, "capacity": 3977, "sardinia": 21594, "##bant": 29604, "04": 5840, "brood": 25565, "\u10da": 1447, "tsunami": 19267, "welch": 17939, "baroque": 10456, "[unused696]": 701, "renaming": 24944, "##ville": 3077, "japanese": 2887, "##\u00ae": 29656, "versa": 18601, "courtney": 14139, "shelton": 22230, "mine": 3067, "ip": 12997, "##nb": 27698, "istanbul": 9960, "minnesota": 5135, "beyonce": 20773, "dmitri": 28316, "undrafted": 21347, "deng": 26957, "glacial": 17381, "tessa": 13167, "pouch": 21445, "iranian": 7726, "difficulty": 7669, "argentina": 5619, "mama": 9588, "rushes": 18545, "law": 2375, "##qing": 19784, "boosted": 28043, "##\u110c": 30000, "##\u57ce": 30330, "hyper": 23760, "benin": 21164, "monetary": 12194, "journal": 3485, "##yev": 17240, "amherst": 19850, "drake": 7867, "duncan": 7343, "##mark": 10665, "moves": 5829, "genius": 11067, "##md": 26876, "unspoken": 25982, "performs": 10438, "##\u9580": 30494, "carved": 7844, "corona": 21887, "managed": 3266, "##ceptive": 28687, "\u30cb": 1716, "gloss": 27068, "scraped": 20378, "cemeteries": 20973, "sears": 18493, "teller": 21322, "convicts": 24948, "protagonists": 21989, "behaved": 26979, "referring": 7727, "##mering": 27851, "initials": 20381, "zodiac": 28501, "subsidiaries": 20178, "arizona": 5334, "##\u05dd": 29800, "detroit": 5626, "olympia": 17096, "rodents": 28156, "pity": 12063, "holly": 9079, "##rrell": 14069, "simultaneously": 7453, "deployed": 7333, "##udes": 22087, "whistle": 13300, "[unused805]": 810, "##sty": 21756, "honda": 11990, "traverse": 20811, "psychological": 8317, "moroccan": 17494, "\u3084": 1682, "chichester": 23406, "parallels": 18588, "recommended": 6749, "misses": 22182, "joo": 28576, "##\u043c": 29745, "##gawa": 21188, "vanilla": 21161, "priesthood": 17911, "libya": 12917, "##\u0646": 15915, "##\u529b": 30304, "joking": 16644, "00": 4002, "superstar": 18795, "skyline": 21343, "davenport": 16273, "##van": 6212, "mothers": 10756, "ie": 29464, "##sov": 23230, "sun": 3103, "hamish": 28859, "nut": 17490, "nickelodeon": 20814, "##ost": 14122, "[unused88]": 89, "granted": 4379, "grinning": 11478, "existing": 4493, "braves": 13980, "undertaken": 10607, "artifacts": 10471, "dumb": 12873, "##clops": 28659, "##jal": 25787, "armenians": 20337, "pressure": 3778, "##bet": 20915, "landings": 16805, "hendricks": 28895, "longest": 6493, "progressing": 27673, "descendants": 8481, "##uid": 21272, "anterior": 15099, "developmental": 13908, "shoes": 6007, "chelsea": 9295, "center": 2415, "depicts": 11230, "frantic": 15762, "tissue": 8153, "flexibility": 16991, "##osed": 24768, "technically": 10892, "nasser": 26099, "rejected": 5837, "skipped": 16791, "asahi": 29465, "##uf": 16093, "purchases": 17402, "pollock": 25218, "assistants": 16838, "saratoga": 23136, "rumors": 11256, "structured": 14336, "dictatorship": 18944, "##oca": 24755, "newscasts": 24482, "##tile": 15286, "##tooth": 19392, "tome": 21269, "tonga": 20188, "gravity": 8992, "1979": 3245, "swindon": 22350, "cornerback": 26857, "##smo": 25855, "perched": 17335, "[unused559]": 564, "dakota": 7734, "[unused377]": 382, "matched": 10349, "##ories": 18909, "1806": 12518, "##jm": 24703, "dollar": 7922, "demonic": 23170, "erskine": 27139, "termed": 12061, "vocal": 5554, "oakland": 9182, "bio": 16012, "betting": 19244, "rubin": 20524, "engraver": 27771, "##iface": 29164, "campground": 29144, "fraud": 9861, "concordia": 24982, "connected": 4198, "groundwater": 22761, "toronto": 4361, "gallantry": 22111, "index": 5950, "vial": 28475, "grazed": 26627, "##\u2194": 30115, "arrive": 7180, "bribes": 29117, "charities": 15430, "indexed": 25331, "\u516c": 1772, "##rt": 5339, "artisans": 26818, "ss": 7020, "\u667a": 1869, "[unused357]": 362, "guatemala": 11779, "asean": 27974, "##marine": 21966, "##ttes": 14581, "celebrates": 21566, "##burgh": 15496, "[unused197]": 202, "##tem": 18532, "##\u00a2": 29645, "code": 3642, "marxist": 15511, "caravan": 17184, "imprisonment": 10219, "##\u30eb": 30259, "westchester": 25489, "strokes": 13692, "transition": 6653, "tribune": 10969, "shang": 29382, "viceroy": 19007, "asha": 24595, "medici": 22605, "##nant": 16885, "aye": 13442, "prussia": 10724, "##yk": 15922, "troll": 18792, "researches": 27338, "exempt": 11819, "dolores": 21544, "southport": 27494, "##bly": 6321, "missy": 25019, "might": 2453, "bodyguards": 25681, "edwin": 10049, "approximation": 20167, "##eron": 26534, "celaena": 29252, "total": 2561, "robson": 23698, "moderator": 29420, "contribution": 6691, "leased": 12019, "sweatshirt": 28095, "getting": 2893, "surprising": 11341, "strode": 11885, "311": 23532, "tightening": 18711, "barnet": 26864, "noble": 7015, "sizes": 10826, "charlemagne": 27257, "[unused965]": 970, "mansion": 7330, "lim": 18525, "doom": 12677, "flipped": 9357, "simone": 14072, "##isch": 19946, "##pg": 26952, "generator": 13103, "illumination": 21203, "iucn": 20333, "magazines": 7298, "craven": 21232, "\u5343": 1784, "##\u2010": 30048, "ahl": 18347, "midfield": 23071, "contradiction": 26917, "yeomanry": 26883, "archive": 8756, "wander": 17677, "legislators": 22680, "##38": 22025, "\u79cb": 1929, "sheila": 15062, "whig": 21632, "caracas": 21675, "cannot": 3685, "janice": 20029, "##hae": 25293, "serpent": 16517, "kills": 8563, "##uh": 27225, "inlet": 15824, "disturbance": 16915, "biodiversity": 17194, "[unused173]": 178, "beginning": 2927, "install": 16500, "##lho": 28061, "faster": 5514, "penny": 10647, "mobile": 4684, "spoil": 27594, "tying": 15233, "traveler": 20174, "ulrich": 19619, "benedictine": 21139, "judaism": 13725, "originally": 2761, "promptly": 13364, "moisture": 14098, "royalty": 16664, "[unused830]": 835, "singular": 13048, "##\u062f": 15394, "baton": 15302, "clarissa": 25260, "strap": 16195, "tc": 22975, "touches": 12817, "hawk": 9881, "fulham": 21703, "cue": 16091, "20s": 27074, "drastically": 21040, "exercised": 17747, "mckinley": 22121, "flock": 19311, "press": 2811, "magnum": 19691, "##ao": 7113, "##\u0917": 29853, "arnold": 7779, "format": 4289, "el": 3449, "##utz": 20267, "asserting": 27644, "classed": 27811, "voices": 5755, "mergers": 28585, "[unused846]": 851, "dominating": 21949, "willing": 5627, "##\u5973": 30341, "##kur": 18569, "threat": 5081, "twenties": 18946, "columbus": 8912, "antonia": 24272, "expedition": 5590, "sustain": 15770, "mets": 15253, "unarmed": 23206, "astoria": 29285, "##region": 23784, "superiors": 22983, "langley": 19094, "dent": 21418, "breasts": 12682, "playboy": 18286, "establish": 5323, "hz": 22100, "bull": 7087, "##\u06d2": 29846, "metre": 7924, "\u062a": 1273, "##ssa": 11488, "lagoon": 15825, "mercedes": 10793, "scissors": 25806, "elaine": 15263, "portals": 27388, "knots": 9439, "problematic": 18636, "capsule": 18269, "##sil": 27572, "##\u1019": 29973, "feeling": 3110, "##dom": 9527, "cooled": 12981, "frankly": 19597, "##door": 23835, "contributors": 16884, "raise": 5333, "##chman": 19944, "mimi": 20705, "##wright": 26460, "menacing": 24060, "##cb": 27421, "barrage": 19359, "\u4e4b": 1749, "##\u092f": 29868, "galen": 21062, "salford": 23001, "thee": 14992, "##dina": 18979, "##yed": 20821, "[unused216]": 221, "subsequently": 3525, "\u10d9": 1446, "incentive": 20438, "est": 9765, "paddy": 16063, "283": 25504, "gen": 8991, "dump": 15653, "cn": 27166, "lift": 6336, "sparta": 21251, "##tails": 22081, "tar": 16985, "##sar": 10286, "accreditation": 14893, "##lium": 21816, "haze": 16332, "132": 14078, "##tford": 26341, "falsely": 23123, "runaway": 19050, "rigged": 25216, "schooner": 21567, "##gny": 19393, "##olate": 19425, "prohibiting": 26325, "thousand": 4595, "por": 18499, "##take": 15166, "elias": 14579, "##ports": 25378, "##\u00ab": 29654, "baptized": 19775, "anatolia": 23747, "dino": 22412, "technology": 2974, "composers": 9929, "jules": 11044, "anthologies": 25675, "trains": 4499, "scholar": 6288, "outfielder": 21033, "usage": 8192, "infinity": 15579, "\u6b4c": 1886, "##hesive": 21579, "amusement": 9778, "widen": 21255, "hardcore": 13076, "elects": 27161, "claremont": 23716, "gonna": 6069, "[unused734]": 739, "adherents": 25712, "novi": 21574, "dew": 24903, "05": 5709, "sparrow": 19479, "easton": 21636, "##imeter": 19198, "away": 2185, "helpless": 13346, "rr": 25269, "kala": 26209, "protects": 18227, "##6th": 25994, "recorded": 2680, "##strom": 15687, "##lea": 19738, "behalf": 6852, "valentine": 10113, "earl": 4656, "conditioned": 22442, "[unused694]": 699, "sprung": 22057, "##ih": 19190, "transactions": 11817, "\u79be": 1927, "segunda": 19071, "\uff1f": 1994, "\u20b9": 1576, "charm": 11084, "vodka": 21092, "bishops": 8414, "vectors": 19019, "lynch": 11404, "rafe": 15819, "[unused970]": 975, "##merie": 28677, "swami": 20087, "drafts": 28967, "scenery": 17363, "fruits": 10962, "than": 2084, "##idal": 16975, "theta": 23963, "caine": 19881, "carriages": 17744, "productivity": 15836, "viii": 9937, "imaging": 12126, "apologize": 12134, "shankar": 17429, "amy": 6864, "sutra": 26567, "saxe": 24937, "##ilis": 24411, "jain": 17136, "dash": 11454, "521": 26963, "##yam": 14852, "confirming": 19195, "maternal": 11062, "francis": 4557, "##\u3009": 30164, "maharashtra": 12434, "bath": 7198, "##55": 24087, "maverick": 27187, "##entes": 26933, "%": 1003, "spring": 3500, "##girl": 15239, "helicopters": 12400, "##\u099c": 29894, "##vances": 26711, "annapolis": 24889, "stephane": 26624, "bulgarian": 7643, "banquet": 19032, "mammoth": 23714, "##resh": 21898, "niece": 12286, "reveal": 7487, "ottawa": 8166, "ceylon": 16447, "surgeon": 9431, "duo": 6829, "browns": 13240, "contributions": 5857, "unreasonable": 29205, "##\u04cf": 29765, "stil": 25931, "[unused812]": 817, "##overs": 24302, "permitted": 7936, "contested": 7259, "bum": 26352, "wallace": 7825, "presbyterian": 10133, "disciples": 17102, "football": 2374, "324": 27234, "mumbled": 11567, "limitation": 22718, "prompting": 15870, "##jit": 18902, "casts": 23942, "boasts": 21979, "dove": 10855, "careful": 6176, "##brate": 22008, "beatty": 27305, "wyatt": 12986, "1869": 7845, "statistical": 7778, "##\u0281": 29694, "guardians": 14240, "##piration": 16781, "clube": 24852, "bidding": 17534, "resting": 8345, "effect": 3466, "##\u0272": 29689, "comet": 15699, "discussed": 6936, "detailing": 17555, "drown": 19549, "ku": 13970, "recoil": 27429, "economically": 15318, "li": 5622, "becca": 22140, "problems": 3471, "conveyed": 21527, "[unused568]": 573, "farmers": 6617, "##\u795e": 30451, "horse": 3586, "##\u2660": 30150, "rebranded": 18233, "##rina": 11796, "conde": 24707, "taking": 2635, "layer": 6741, "1793": 12387, "garrett": 9674, "##\u09b7": 29911, "underside": 17313, "fide": 26000, "elgin": 23792, "##\u0f62": 29970, "##hp": 22269, "infected": 10372, "demetrius": 28367, "lutheran": 10034, "vineyards": 20597, "interpreter": 19555, "verification": 22616, "steered": 23424, "nailed": 26304, "multitude": 20889, "cumberland": 12310, "marquez": 27320, "polgara": 27041, "politics": 4331, "[unused739]": 744, "##\u03b1": 14608, "[unused717]": 722, "##mise": 28732, "waving": 12015, "accomplishments": 17571, "##cs": 6169, "revolutions": 25239, "##genesis": 23737, "republicans": 10643, "##enna": 24397, "##hn": 7295, "stat": 28093, "##ix": 7646, "ems": 29031, "interfering": 24324, "1960s": 4120, "katie": 9734, "mary": 2984, "immune": 11311, "assist": 6509, "flavor": 14894, "arches": 13540, "ankle": 10792, "previous": 3025, "sources": 4216, "annum": 28907, "aluminium": 14794, "inside": 2503, "##500": 29345, "##ner": 3678, "coral": 11034, "##ady": 18632, "##ennial": 22929, "##zan": 13471, "mummy": 22788, "greed": 22040, "##olis": 20872, "warrington": 23051, "beauty": 5053, "nsa": 23971, "\u11b7": 1487, "novels": 6002, "lake": 2697, "##lake": 14530, "raju": 25098, "warehouses": 23319, "[unused23]": 24, "##saurus": 22244, "nigel": 12829, "cullen": 19925, "##ani": 7088, "disrupt": 23217, "taylor": 4202, "##tituted": 29139, "federation": 4657, "gracie": 19005, "comparatively": 20172, "landscaping": 28404, "[unused603]": 608, "magnolia": 24659, "##etano": 28752, "beating": 6012, "tacoma": 22954, "copenhagen": 9664, "popularity": 6217, "000": 2199, "tinted": 25577, "bail": 15358, "dissent": 24116, "sud": 19219, "bothered": 11250, "hahn": 24266, "##\u0436": 29743, "pilasters": 26752, "turbulence": 29083, "using": 2478, "gesturing": 22317, "portions": 8810, "venue": 6891, "scottish": 4104, "[unused852]": 857, "harvest": 11203, "hackett": 28630, "##ok": 6559, "willy": 16172, "##sed": 6924, "##icing": 23553, "doubts": 13579, "ignacio": 22988, "voyages": 21993, "cum": 13988, "maclean": 22528, "\u2015": 1518, "##ut": 4904, "income": 3318, "##books": 17470, "[unused324]": 329, "##dna": 28911, "##elin": 18809, "\u02bb": 1145, "mythological": 21637, "konrad": 22958, "##christ": 26654, "salle": 18005, "their": 2037, "pastry": 27060, "roam": 25728, "exchanged": 10573, "performance": 2836, "reporting": 7316, "ind": 27427, "attendees": 19973, "heaving": 23907, "richmond": 6713, "chicks": 20649, "consequently": 8821, "cmll": 25395, "moore": 5405, "reprinted": 13603, "shouts": 15701, "##\u0d9a": 29939, "filed": 6406, "##\u098f": 29887, "oblique": 20658, "cartel": 21680, "clare": 11152, "##des": 6155, "##vc": 25465, "liang": 16982, "adolescents": 25947, "tango": 17609, "gu": 19739, "##\u0647": 14157, "clawed": 22544, "##rman": 14515, "mao": 15158, "discusses": 15841, "##ness": 2791, "noir": 15587, "##ws": 9333, "intellectual": 7789, "herring": 22103, "knocks": 21145, "husky": 18758, "confines": 25722, "##\u10e0": 29987, "midfielder": 8850, "[unused445]": 450, "before": 2077, "##\u8279": 30465, "##\u06af": 29842, "controlled": 4758, "##icient": 20132, "##rell": 16230, "##erving": 25164, "##mata": 21022, "loops": 15932, "require": 5478, "value": 3643, "shin": 12277, "dreamed": 13830, "arias": 25905, "##dick": 24066, "reluctance": 21662, "##\u2ea9": 30158, "chihuahua": 28480, "##eis": 17580, "##\u1112": 30005, "allan": 8926, "garnered": 13056, "puppets": 26101, "dusty": 12727, "stipulated": 25729, "\u304a": 1650, "##hee": 21030, "##bble": 11362, "gee": 20277, "teach": 6570, "sidekick": 29240, "tae": 22297, "stevens": 8799, "swift": 9170, "olive": 9724, "tasted": 12595, "quan": 24110, "silky": 18848, "wimbledon": 13411, "##icative": 25184, "##mism": 26725, "ndp": 21915, "deviation": 24353, "perrin": 28106, "homer": 11525, "[unused526]": 531, "plunge": 25912, "fought": 4061, "remarked": 10783, "1st": 3083, "1812": 9842, "bernardo": 21175, "austria": 5118, "impression": 8605, "\u1173": 1481, "grade": 3694, "longtime": 11155, "fibers": 16662, "##ssel": 21218, "tian": 23401, "discourage": 28085, "##meyer": 24344, "##dya": 25838, "copyright": 9385, "nigeria": 7387, "consort": 13440, "emperor": 3750, "settler": 18556, "validation": 27354, "apical": 29197, "##bank": 9299, "##work": 6198, "communist": 4750, "blankly": 26344, "flag": 5210, "disrepair": 27799, "notre": 10289, "wiring": 27930, "##ysis": 20960, "automatic": 6882, "interviewing": 27805, "cecil": 11978, "molecular": 8382, "mace": 19382, "duc": 26363, "##xide": 19491, "trust": 3404, "translated": 5421, "weston": 12755, "&": 1004, "allied": 6035, "[unused56]": 57, "##odon": 28716, "bin": 8026, "erika": 24900, "appearance": 3311, "juliet": 13707, "overlooked": 17092, "durga": 28746, "##market": 20285, "##60": 16086, "##\u043e\u0432\u0438\u0447": 16198, "commissioner": 5849, "realm": 8391, "wit": 15966, "prevailed": 19914, "##raph": 24342, "tagged": 26610, "employees": 5126, "indication": 12407, "items": 5167, "greenwood": 16827, "shoving": 15866, "299": 25926, "##bbe": 19473, "area": 2181, "currently": 2747, "regarding": 4953, "prefer": 9544, "\u0f0b": 1424, "eton": 21687, "newt": 25597, "ville": 20184, "felony": 24648, "ghosts": 11277, "##mined": 25089, "##cco": 21408, "dennis": 6877, "##\u8857": 30472, "##holes": 19990, "buying": 9343, "lev": 23310, "[unused964]": 969, "marker": 12115, "typically": 4050, "##pur": 5311, "dream": 3959, "hesitated": 9369, "##down": 7698, "##ocene": 25793, "albums": 4042, "##\u201e": 30060, "horizon": 9154, "cascade": 16690, "rod": 8473, "mortality": 13356, "##unt": 16671, "jelly": 20919, "##uga": 16377, "intersecting": 27294, "response": 3433, "[unused882]": 887, "##sta": 9153, "luc": 12776, "leopard": 16240, "convert": 10463, "specializes": 16997, "##ep": 13699, "bradford": 9999, "fixing": 15887, "render": 17552, "payment": 7909, "scrapped": 14553, "bitterly": 19248, "tops": 13284, "eras": 28500, "eric": 4388, "strike": 4894, "##med": 7583, "incarcerated": 23995, "rumours": 19200, "flavors": 26389, "##vius": 26055, "rumored": 22710, "mit": 10210, "##py": 7685, "merlin": 15993, "consolidation": 17439, "flexed": 24244, "sidney": 11430, "diameter": 6705, "wolfe": 14212, "##ffen": 18032, "esteem": 19593, "locality": 10246, "##aby": 21275, "rage": 7385, "##evsky": 27015, "##inations": 22045, "exploit": 18077, "1b": 26314, "childbirth": 27162, "thugs": 24106, "ic": 24582, "bulge": 23708, "##ibility": 13464, "prentice": 23429, "verb": 12034, "genres": 11541, "shadow": 5192, "jill": 10454, "medicare": 27615, "[unused221]": 226, "cartwright": 27513, "yelled": 7581, "informing": 21672, "pact": 14790, "distrust": 29245, "austro": 16951, "grading": 26886, "audiences": 9501, "valuation": 26004, "##\u0dcf": 29944, "ivy": 7768, "firearm": 23646, "[unused201]": 206, "climate": 4785, "savoy": 16394, "tanks": 7286, "the": 1996, "judgments": 26186, "buck": 10131, "\u306e": 1671, "##charged": 22620, "[unused64]": 65, "fitness": 10516, "##len": 7770, "ashok": 28916, "quality": 3737, "subway": 10798, "ab": 11113, "##itan": 25451, "toyota": 11742, "memorable": 13432, "1652": 28853, "##inate": 14776, "##24": 18827, "\u05ea": 1267, "moshe": 27123, "[unused687]": 692, "debating": 20767, "trusting": 19836, "powers": 4204, "##itis": 13706, "##wes": 18192, "[unused191]": 196, "luzon": 21622, "1632": 28216, "typed": 21189, "borrowed": 11780, "7": 1021, "_": 1035, "kiel": 20963, "neighbourhood": 10971, "aristocracy": 22706, "cupped": 13740, "\u116f": 1479, "chief": 2708, "##ppa": 13944, "trainer": 10365, "##suka": 26544, "##\u6cbb": 30426, "soft": 3730, "##pe": 5051, "lucia": 12337, "fortune": 7280, "galileo": 21514, "32": 3590, "allegations": 9989, "##r": 2099, "[unused378]": 383, "##\u300e": 30169, "prescott": 20719, "##ison": 10929, "1858": 8517, "inca": 27523, "ren": 14916, "##illo": 10486, "##\u0280": 29693, "\u10d2": 1440, "##iri": 15735, "ineffective": 20694, "guard": 3457, "intensified": 15767, "olds": 19457, "faa": 17032, "champion": 3410, "45": 3429, "donate": 21357, "czech": 5569, "##ici": 28775, "coup": 8648, "jessie": 10934, "sparkling": 16619, "##ogy": 15707, "obama": 8112, "banged": 22843, "weakly": 17541, "proud": 7098, "lots": 7167, "skill": 8066, "##cona": 24366, "##uche": 19140, "##nn": 10695, "##tag": 15900, "##break": 23890, "clothing": 5929, "##ffed": 15388, "##ries": 5134, "limb": 15291, "qing": 13282, "##\u5b50": 30342, "division": 2407, "dyke": 22212, "##oun": 23709, "idiots": 28781, "tailed": 14578, "indochina": 27053, "##stle": 22516, "clutch": 15357, "classes": 4280, "y": 1061, "dating": 5306, "shopping": 6023, "##irs": 18894, "\u300d": 1642, "142": 16087, "mixer": 23228, "mustafa": 19683, "radical": 7490, "##boot": 27927, "commotion": 23960, "faber": 21720, "sensed": 10596, "mastering": 11495, "ions": 15956, "obtain": 6855, "inspectors": 28421, "supervising": 21238, "235": 17825, "venerable": 24541, "##\u0ba4": 29921, "superficial": 23105, "aesthetic": 12465, "hitter": 18694, "duluth": 28218, "sleepy": 17056, "yerevan": 23383, "won": 2180, "\u10e2": 1453, "supporting": 4637, "captive": 12481, "municipality": 3250, "thoroughbred": 18359, "far": 2521, "##asian": 24145, "1978": 3301, "castle": 3317, "seats": 4272, "garbage": 13044, "##ony": 16585, "brother": 2567, "twenty20": 22240, "however": 2174, "transmit": 19818, "hurried": 9520, "correction": 18140, "[unused877]": 882, "edinburgh": 5928, "almond": 26011, "segment": 6903, "suffolk": 12291, "documentaries": 15693, "ministries": 16410, "nutrient": 26780, "\u2666": 1626, "mantra": 25951, "fingertips": 12206, "leaves": 3727, "enter": 4607, "crafts": 14030, "cosmos": 21182, "twain": 24421, "enabling": 12067, "occasional": 8138, "##hog": 25852, "camouflage": 21356, "##rac": 22648, "##rites": 28884, "jocelyn": 23786, "##oides": 25064, "thinkers": 24762, "branding": 16140, "topped": 9370, "[unused866]": 871, "##f": 2546, "brief": 4766, "##tized": 23355, "##ando": 28574, "staggered": 14648, "candidacy": 17057, "1828": 11517, "jewel": 13713, "##bius": 17028, "jett": 22962, "win": 2663, "brazilian": 6142, "southwestern": 8772, "transforming": 17903, "\u305b": 1659, "resisted": 13335, "##\u884c": 30471, "novelist": 9974, "johns": 11545, "novella": 20674, "essex": 8862, "##ein": 12377, "[unused261]": 266, "##hism": 23108, "##aba": 19736, "evolution": 6622, "rainbow": 10098, "##quist": 18331, "##trom": 13887, "bloomington": 26372, "##erik": 27350, "wider": 7289, "grasses": 21620, "##vao": 24682, "sherlock": 20052, "specification": 12827, "fairness": 26935, "inflicted": 17303, "capability": 10673, "syndicated": 13889, "teddy": 11389, "ottomans": 17774, "gerard": 11063, "existent": 25953, "jenny": 8437, "illustrator": 13825, "gastropod": 10953, "tutor": 14924, "northern": 2642, "authenticity": 21452, "\u05e6": 1263, "lodge": 7410, "fucked": 21746, "related": 3141, "ventured": 20510, "miracle": 9727, "nights": 6385, "tormented": 29026, "##hetic": 20086, "flesh": 5771, "biscuits": 27529, "canucks": 26177, "##\u2217": 30125, "[unused334]": 339, "prevailing": 19283, "[unused30]": 31, "experiences": 6322, "ties": 7208, "tub": 14366, "vans": 21994, "sinai": 20837, "robust": 15873, "disgusted": 17733, "etat": 17997, "salad": 16521, "insulin": 22597, "armando": 26716, "hoping": 5327, "##tenberg": 21806, "efforts": 4073, "##bright": 26614, "[unused140]": 145, "slow": 4030, "saetan": 23515, "belgarath": 21256, "classified": 6219, "unusual": 5866, "car": 2482, "doctrine": 8998, "##man": 2386, "hoop": 27669, "siberian": 21822, "brake": 13428, "detection": 10788, "guinea": 7102, "coma": 16571, "honneur": 28197, "simi": 28684, "hooves": 28399, "frankish": 26165, "vocals": 2955, "dan": 4907, "program": 2565, "##oed": 29099, "port": 3417, "sinking": 10186, "derelict": 28839, "##raj": 14220, "clearer": 24509, "##cl": 20464, "fetch": 18584, "franz": 8965, "expulsion": 18272, "disneyland": 25104, "recaptured": 23838, "noah": 7240, "provision": 9347, "leukemia": 25468, "healy": 25706, "daisy": 10409, "inhibitor": 24054, "shepard": 22189, "dad": 3611, "transported": 9687, "sikh": 17246, "enacted": 11955, "primitive": 10968, "induction": 15946, "hind": 17666, "themed": 11773, "partially": 6822, "lewis": 4572, "harald": 20966, "dublin": 5772, "awoke": 19179, "conception": 13120, "qualifying": 6042, "researcher": 10753, "cans": 18484, "ripping": 17039, "wolves": 8588, "wage": 11897, "breakfast": 6350, "\u0441": 1196, "swallows": 26436, "astor": 25159, "battled": 19787, "sulfur": 17864, "undone": 25757, "stadium": 3346, "dal": 17488, "elf": 17163, "relying": 18345, "francaise": 18427, "##atics": 17592, "##ntal": 15758, "##\u2500": 30142, "rio": 5673, "cried": 6639, "##stituting": 21532, "peaked": 6601, "prefers": 19233, "##bley": 29538, "sherry": 22268, "olivier": 14439, "austrian": 6161, "balls": 7395, "##rma": 17830, "aaa": 13360, "hancock": 13849, "quintet": 18109, "blackberry": 25935, "danzig": 26669, "santana": 21158, "qb": 26171, "absorb": 16888, "##\u0930": 29869, "noticed": 4384, "latter": 3732, "burger": 15890, "[unused547]": 552, "##tion": 3508, "[unused480]": 485, "sadler": 29012, "mounting": 15986, "pmid": 20117, "hallmark": 25812, "[unused345]": 350, "islamist": 27256, "baronetcy": 25071, "respect": 4847, "diffuse": 28105, "##sit": 28032, "summoned": 11908, "sensory": 16792, "chad": 9796, "heroic": 14779, "##bow": 18912, "explore": 8849, "spur": 12996, "##onal": 16026, "philosophy": 4695, "coupled": 11211, "prototype": 8773, "heights": 7535, "johor": 25268, "toys": 10899, "##oz": 18153, "anne": 4776, "darker": 9904, "meteor": 23879, "physics": 5584, "##tist": 16774, "pixels": 27725, "\u30b3": 1704, "rogue": 12406, "permanently": 8642, "larson": 21213, "earle": 23888, "subtropical": 11935, "glove": 15913, "maynard": 22130, "sunlight": 9325, "##zquez": 22938, "sleeper": 24372, "##rh": 25032, "truck": 4744, "##room": 9954, "estonia": 10692, "packaging": 14793, "\u3063": 1663, "dissipated": 22572, "##ald": 19058, "nina": 9401, "brutally": 23197, "[unused905]": 910, "throwing": 6886, "debated": 15268, "published": 2405, "##lated": 13776, "hogan": 14851, "haiti": 12867, "##ctus": 22675, "halifax": 10475, "small": 2235, "##eter": 15141, "efficiency": 8122, "ninety": 13568, "##heart": 22375, "affectionately": 28734, "form": 2433, "closeness": 28398, "snorted": 15235, "armchair": 29372, "visibly": 19397, "stylized": 19551, "buyer": 17634, "\u3080": 1679, "1831": 10937, "##dra": 7265, "transformers": 19081, "yourselves": 25035, "wind": 3612, "##ologies": 20792, "invisible": 8841, "hawker": 23937, "albeit": 12167, "feldman": 26908, "[unused241]": 246, "essence": 11305, "##vn": 16022, "writhing": 26185, "joseph": 3312, "##us": 2271, "filipino": 10275, "scorer": 10835, "interchange": 8989, "85": 5594, "##mad": 25666, "##\u2193": 30114, "eleventh": 11911, "rebellious": 22614, "io": 22834, "confederation": 11078, "bas": 19021, "##4": 2549, "created": 2580, "208": 18512, "leaned": 4016, "##eva": 13331, "appetite": 18923, "\u203f": 1534, "shortage": 15843, "leaping": 21216, "evelyn": 12903, "barrow": 15355, "keystone": 22271, "agent": 4005, "##nzo": 25650, "postponed": 14475, "foraging": 26912, "mystery": 6547, "saxony": 13019, "kind": 2785, "artery": 16749, "\u5fd7": 1851, "spite": 8741, "##kar": 6673, "navy": 3212, "##kas": 13716, "drastic": 23956, "spread": 3659, "\u30e3": 1728, "registers": 18687, "comparing": 13599, "[unused305]": 310, "natal": 17489, "nonfiction": 25753, "lightweight": 12038, "caressing": 25296, "sole": 7082, "rods": 19485, "171": 18225, "branching": 23346, "simpson": 9304, "spokesperson": 15974, "material": 3430, "patriots": 11579, "barton": 12975, "sanctioned": 14755, "ensign": 19890, "mobilized": 27526, "\u85e4": 1944, "struck": 4930, "paired": 12739, "passports": 19494, "italianate": 25302, "representative": 4387, "##havan": 24652, "andrew": 4080, "1873": 7612, "ongoing": 7552, "brooding": 28902, "terrorists": 15554, "reflections": 16055, "nitrate": 29607, "bumped": 19030, "devlin": 24389, "recurring": 10694, "traumatic": 19686, "testimony": 10896, "villagers": 11904, "flank": 12205, "compound": 7328, "porte": 25927, "1742": 25704, "7th": 5504, "trondheim": 26331, "##ego": 20265, "minus": 15718, "##rre": 14343, "##venor": 26806, "grave": 6542, "asphalt": 16295, "transform": 10938, "jane": 4869, "laborers": 23428, "relates": 14623, "gerry": 14926, "hen": 21863, "aisle": 12485, "elisa": 29490, "helmets": 22674, "dig": 10667, "kg": 4705, "cab": 9298, "defence": 4721, "marcel": 13389, "bottom": 3953, "repealed": 21492, "accession": 16993, "forty": 5659, "##ration": 8156, "groans": 27778, "[unused626]": 631, "spawn": 25645, "##\u0582": 29785, "##\u4ee3": 30286, "meyer": 11527, "##bel": 8671, "health": 2740, "##i": 2072, "defended": 8047, "thorns": 28408, "ix": 11814, "sacked": 14159, "defences": 16828, "reissued": 14805, "twigs": 27964, "adapting": 25357, "1888": 6690, "modification": 14080, "tracked": 12808, "##color": 18717, "rappers": 28257, "##crats": 23423, "##\u0430\u043d": 28995, "##eri": 11124, "1975": 3339, "stricken": 16654, "##\u2079": 30078, "##eth": 11031, "marijuana": 16204, "##dong": 17679, "cat": 4937, "puebla": 27452, "hostage": 13446, "kira": 15163, "indicating": 8131, "1758": 16832, "guarding": 17019, "lotus": 13030, "mathematicians": 29374, "teasing": 12216, "##hea": 20192, "rowan": 14596, "stared": 3592, "##pee": 28084, "##vant": 18941, "1998": 2687, "vantage": 27274, "##cino": 21081, "bastion": 26829, "clue": 9789, "##c": 2278, "##eda": 11960, "engage": 8526, "doubled": 11515, "dq": 25410, "economists": 22171, "pulmonary": 21908, "david": 2585, "los": 3050, "vastly": 24821, "administratively": 23710, "mccarthy": 12584, "carmen": 11425, "##listic": 27348, "##\u3048": 30175, "##mmon": 24521, "observe": 11949, "[unused502]": 507, "glasgow": 6785, "##tton": 15474, "madhya": 20841, "##jet": 15759, "hawaii": 7359, "semifinals": 8565, "##acle": 18630, "clinic": 9349, "sonya": 27926, "movements": 5750, "extensively": 8077, "regard": 7634, "[unused260]": 265, "masonry": 18103, "bounded": 10351, "malvern": 28082, "1775": 14276, "instituted": 14948, "flatly": 24295, "trumpet": 9368, "##lt": 7096, "365": 19342, "arsenic": 29596, "##jected": 24455, "patch": 8983, "[unused835]": 840, "##cking": 23177, "##\u3064": 30190, "1642": 24061, "civilizations": 24784, "fiona": 13073, "##tral": 21493, "evaluate": 16157, "grocery": 13025, "kidd": 25358, "tainted": 26392, "angola": 13491, "accessible": 7801, "##ancy": 11656, "confidently": 28415, "eighteen": 7763, "cain": 11557, "distributors": 22495, "beak": 23525, "bjp": 24954, "##hosis": 25229, "engineer": 3992, "##hal": 8865, "##mberg": 29084, "1912": 4878, "coordinator": 10669, "ck": 23616, "cause": 3426, "points": 2685, "answering": 10739, "imagery": 13425, "kindly": 19045, "##\u0f53": 29965, "overseen": 22485, "happened": 3047, "gaddafi": 28924, "suzuki": 14278, "lace": 12922, "severed": 16574, "survivor": 12084, "94": 6365, "##uno": 27819, "basalt": 26343, "\u1d58": 1506, "##sos": 17063, "sicilian": 22584, "zulu": 27359, "teeth": 4091, "peered": 10757, "executing": 23448, "role": 2535, "travellers": 19284, "editing": 9260, "gandhi": 12338, "\u0e01": 1409, "ave": 13642, "redskins": 17461, "spot": 3962, "jen": 15419, "sparsely": 24961, "plainly": 24250, "servers": 14903, "freeway": 10846, "nothing": 2498, "##\ufb02": 30511, "left": 2187, "[unused697]": 702, "ellis": 8547, "leon": 6506, "##\u043d\u0430": 19865, "\u0631": 1280, "originate": 21754, "lest": 26693, "##woman": 10169, "woven": 17374, "unrest": 16591, "##ull": 18083, "dane": 14569, "##mm": 7382, "distraught": 25348, "rooms": 4734, "cher": 24188, "answer": 3437, "30th": 13293, "pills": 15345, "##orin": 28741, "arm": 2849, "##\u05e1": 29804, "publications": 5523, "caledonian": 27449, "whatsoever": 18971, "particularly": 3391, "##air": 11215, "azerbaijani": 18325, "belt": 5583, "injected": 19737, "kara": 13173, "relocate": 20102, "sami": 17015, "14": 2403, "[unused505]": 510, "##pts": 22798, "##18": 15136, "batting": 9640, "waking": 12447, "##ually": 28488, "##ately": 28239, "older": 3080, "grooves": 25880, "emanuel": 21135, "\u2087": 1554, "eternal": 10721, "romanian": 7056, "clear": 3154, "##nes": 5267, "tunnel": 5234, "active": 3161, "blessing": 13301, "fiance": 19154, "conditions": 3785, "tianjin": 26216, "##meric": 25531, "embryo": 28086, "mosquito": 22529, "scarred": 21985, "##yo": 7677, "##rden": 18246, "##iating": 15370, "skipping": 25978, "rightful": 27167, "##pace": 15327, "throws": 11618, "##lts": 21593, "citations": 22921, "##basket": 25351, "eel": 24315, "stanford": 8422, "inadequate": 14710, "exposed": 6086, "affiliation": 12912, "coaster": 16817, "##d": 2094, "slight": 7263, "##deck": 26547, "outdoor": 7254, "mounds": 19503, "community": 2451, "405": 23988, "superhero": 16251, "##ii": 6137, "psalm": 22728, "chose": 4900, "wisconsin": 5273, "documentary": 4516, "edict": 24754, "ge": 16216, "##pled": 21132, "mellon": 22181, "atkinson": 18646, "tune": 8694, "macon": 20025, "brentford": 26550, "##lok": 29027, "##mc": 12458, "destroyed": 3908, "outline": 12685, "caves": 10614, "1727": 25350, "save": 3828, "##edd": 22367, "reason": 3114, "covering": 5266, "kerala": 8935, "mw": 12464, "neither": 4445, "##ajan": 28869, "soils": 13622, "modes": 11583, "##\u0924": 29859, "reporters": 12060, "subsidiary": 7506, "courtship": 28592, "kits": 18628, "landscapes": 12793, "##aster": 24268, "spherical": 18970, "romney": 19615, "jun": 12022, "imperialism": 28087, "poor": 3532, "##athic": 20972, "water": 2300, "bitterness": 22364, "expert": 6739, "albania": 10407, "\u0569": 1224, "squirrels": 29384, "stiffened": 16090, "violations": 13302, "destroying": 9846, "1611": 28769, "1984": 3118, "##ud": 6784, "voted": 5444, "terri": 26568, "##ogo": 22844, "##gar": 6843, "nyu": 27935, "ridges": 16386, "ruben": 19469, "oracle": 14721, "[unused857]": 862, "camps": 7958, "northwestern": 7855, "##rera": 24068, "sting": 12072, "shouting": 11273, "\uff0d": 1990, "burmese": 14468, "genealogy": 26684, "northeastern": 8763, "45th": 24634, "##unce": 17457, "2": 1016, "successful": 3144, "assumptions": 17568, "\u03c7": 1177, "schools": 2816, "enrique": 15769, "telecom": 18126, "quinlan": 28451, "baroness": 21479, "keynes": 22152, "gora": 26967, "##onne": 18256, "bankers": 25375, "##tub": 28251, "portsmouth": 10913, "##won": 19291, "##hma": 22444, "cares": 14977, "babies": 10834, "scriptures": 22481, "glasses": 7877, "mountainous": 14897, "risky": 19188, "insurance": 5427, "marches": 20691, "##uria": 27703, "ne": 11265, "necessity": 13185, "male": 3287, "##01": 24096, "modernized": 27140, "rupert": 14641, "[unused723]": 728, "sonora": 26647, "muslim": 5152, "001": 25604, "barked": 17554, "\u0938": 1338, "##version": 27774, "gypsy": 16006, "outs": 21100, "opus": 16895, "##iente": 25099, "scooted": 24289, "pause": 8724, "whitaker": 27049, "##ly": 2135, "##mum": 27147, "wished": 6257, "dismissal": 15322, "ronald": 8923, "unclear": 10599, "midway": 12213, "gunners": 29000, "##cision": 28472, "tissues": 14095, "87": 6584, "astros": 22058, "wyoming": 10622, "erection": 13760, "sexual": 4424, "\u00b4": 1084, "wehrmacht": 23443, "##gic": 12863, "activate": 20544, "wagon": 9540, "##\uff1a": 30519, "##id": 3593, "volunteered": 14382, "costing": 22173, "harvesting": 21534, "##fall": 13976, "predominant": 21047, "##nds": 18376, "dunedin": 22020, "honoured": 15546, "##ess": 7971, "brilliance": 28850, "[unused352]": 357, "[unused944]": 949, "favourable": 18731, "sphinx": 27311, "##fc": 11329, "finalists": 13527, "peru": 7304, "dev": 16475, "nicky": 20158, "choreographer": 17334, "263": 25246, "##bar": 8237, "##tics": 14606, "argyll": 27365, "##tore": 19277, "##ignment": 24838, "##drome": 29171, "arrows": 12563, "titan": 16537, "mischief": 25166, "straightforward": 19647, "13th": 6122, "overall": 3452, "danish": 5695, "##hta": 22893, "infancy": 22813, "##inho": 29344, "lakshmi": 21352, "##trics": 29392, "##ata": 6790, "alleged": 6884, "##ive": 3512, "1816": 12357, "antenna": 13438, "delaying": 29391, "molina": 25601, "buren": 29470, "security": 3036, "honest": 7481, "operational": 6515, "five": 2274, "darryl": 22821, "arden": 26225, "##lou": 23743, "weddings": 20429, "analysts": 18288, "prostitutes": 20833, "sturdy": 23073, "interpreting": 25455, "mercury": 8714, "##ory": 10253, "ulster": 11059, "metaphysical": 29081, "stabbing": 21690, "##cake": 17955, "trick": 7577, "\u5948": 1814, "drafted": 7462, "##vani": 27760, "extinguished": 27705, "vibrant": 17026, "anyone": 3087, "tricks": 12225, "##yn": 6038, "shrinking": 28375, "avoids": 26777, "guest": 4113, "francisco": 3799, "capped": 13880, "##lese": 24527, "humanitarian": 11470, "exemption": 19621, "cradled": 23774, "groaned": 9655, "carey": 11782, "mandela": 26887, "##\u5185": 30299, "##nger": 11392, "##lastic": 28723, "versions": 4617, "invite": 13260, "derivative": 13819, "secret": 3595, "from": 2013, "released": 2207, "graffiti": 17990, "gerais": 29220, "[unused384]": 389, "schizophrenia": 23683, "furiously": 20322, "deposed": 18298, "disgust": 12721, "[unused74]": 75, "update": 10651, "ledge": 18283, "sal": 16183, "[unused883]": 888, "##\u5948": 30340, "pistol": 8779, "lynx": 22636, ":": 1024, "thompson": 5953, "taps": 25316, "geoff": 14915, "burgess": 17754, "##long": 10052, "fireplace": 13788, "\u0632": 1281, "photographed": 16164, "##bol": 14956, "length": 3091, "lyndon": 23037, "bon": 14753, "##ulio": 24825, "magnificent": 12047, "##n": 2078, "##oys": 27153, "[unused311]": 316, "##lag": 17802, "colchester": 20115, "chuckled": 10252, "dahl": 27934, "ligand": 27854, "claimed": 3555, "1645": 26081, "##hra": 13492, "startled": 9696, "1620": 24259, "elaborated": 25187, "accommodated": 28959, "follower": 22399, "sensations": 21378, "targeted": 9416, "different": 2367, "voivodeship": 7225, "promo": 19430, "##oo": 9541, "bed": 2793, "provide": 3073, "##zie": 14272, "hernandez": 13688, "harmed": 25596, "email": 10373, "boutique": 24611, "frenchman": 26529, "740": 25833, "crumpled": 19814, "38": 4229, "##wall": 9628, "backbone": 21505, "##h": 2232, "indoor": 7169, "welcome": 6160, "barrie": 24953, "gestured": 11574, "blockade": 15823, "dean": 4670, "relies": 16803, "prelude": 19508, "locks": 11223, "highlighted": 11548, "555": 29541, "##\u66f2": 30396, "accurate": 8321, "chevrolet": 14724, "##ensburg": 28812, "fixtures": 17407, "bad": 2919, "anhalt": 27088, "mindanao": 23669, "transient": 25354, "afghanistan": 7041, "[unused780]": 785, "detailed": 6851, "heads": 4641, "additional": 3176, "##\u21d2": 30119, "[unused458]": 463, "croix": 18733, "##\u6f22": 30430, "##card": 11522, "404": 24837, "sundays": 14803, "metropolitan": 4956, "finances": 16156, "raids": 11217, "tapes": 13324, "blizzard": 21689, "##ient": 11638, "incidence": 18949, "[unused130]": 135, "harcourt": 22714, "kn": 14161, "greedy": 20505, "dammit": 20878, "[unused682]": 687, "dice": 18740, "rails": 15168, "averaging": 14985, "louisiana": 5773, "##erman": 18689, "necks": 26082, "##sler": 20590, "##drive": 23663, "guggenheim": 20402, "theoretical": 9373, "##uity": 18518, "rusty": 13174, "06": 5757, "67": 6163, "watched": 3427, "##kr": 21638, "georg": 12062, "vita": 19300, "##bed": 8270, "appropriately": 23263, "ci": 25022, "locally": 7246, "monopoly": 15404, "milky": 21582, "soloists": 27516, "basins": 22739, "##channel": 26058, "sha": 21146, "##chester": 25322, "##\u0627\u0646": 18511, "guerre": 24613, "cassandra": 15609, "##\u30d8": 30247, "##mon": 8202, "serves": 4240, "rock": 2600, "makeup": 5789, "huts": 23326, "malcolm": 8861, "arun": 28217, "elijah": 14063, "shore": 5370, "sensing": 13851, "da": 4830, "##sher": 19603, "snakes": 12971, "##\u060c": 29814, "lawyer": 5160, "una": 14477, "diesel": 7937, "tragic": 13800, "rms": 29311, "dismantled": 17293, "saline": 28413, "employs": 13495, "ns": 24978, "1100": 22096, "attribute": 17961, "alfredo": 19423, "shawn": 13218, "chateau": 11874, "giles": 13287, "[unused506]": 511, "##\u02e1": 29716, "##7": 2581, "barangay": 20937, "##is": 2483, "create": 3443, "1829": 11523, "dim": 11737, "greenfield": 26713, "##scan": 29378, "khyber": 28416, "correspondent": 11370, "migrant": 20731, "xiv": 15939, "##eon": 10242, "quasi": 17982, "##pour": 27757, "paints": 23262, "anderson": 5143, "heartbreak": 27724, "[unused473]": 478, "academy": 2914, "blow": 6271, "foothills": 18455, "visit": 3942, "##mpt": 27718, "handel": 21465, "ideas": 4784, "\u00a6": 1072, "turkey": 4977, "##isation": 6648, "refuge": 9277, "discourse": 15152, "\u3046": 1648, "traversed": 27797, "deserved": 10849, "mojo": 28017, "crowd": 4306, "bathurst": 21897, "quartermaster": 24688, "sainte": 16947, "ready": 3201, "reminded": 6966, "[unused597]": 602, "\u2010": 1513, "darkly": 27148, "\u5341": 1783, "257": 24368, "ghent": 24202, "bush": 5747, "\uff0f": 1992, "contemporary": 3824, "##fine": 23460, "repaired": 13671, "counts": 9294, "##lian": 15204, "sergeant": 6722, "website": 4037, "##finder": 23695, "restart": 23818, "##power": 11452, "##torm": 20654, "would": 2052, "caps": 9700, "rehab": 24497, "##otte": 28495, "practitioner": 18742, "caucasian": 23368, "aegean": 27198, "##tish": 24788, "weimar": 20695, "[unused932]": 937, "schwartz": 16756, "[unused288]": 293, "receptions": 16466, "\u026b": 1120, "collaborating": 20295, "segregation": 18771, "##\u5fa1": 30373, "##rat": 8609, "\u5f35": 1844, "weather": 4633, "##\uff0c": 30515, "laird": 21964, "##bei": 19205, "commando": 15054, "nes": 24524, "##\u0458": 29761, "710": 27671, "##ucible": 21104, "[unused803]": 808, "395": 24673, "vincent": 6320, "##\u05e5": 29808, "villa": 6992, "spectrum": 8674, "boxers": 18508, "huntington": 16364, "delivers": 18058, "garde": 14535, "handicap": 15822, "sri": 5185, "2004": 2432, "digger": 28661, "cooler": 14976, "\u2202": 1592, "\u3051": 1654, "loren": 28779, "histories": 15215, "pricing": 20874, "1666": 27407, "lunch": 6265, "critique": 16218, "##ggles": 24989, "brands": 9639, "road": 2346, "syracuse": 11736, "11th": 6252, "stroll": 27244, "##inging": 23180, "graduate": 4619, "##eley": 22352, "intimacy": 20893, "sq": 5490, "filly": 22062, "attendants": 26727, "focused": 4208, "ambrose": 15675, "administrators": 15631, "bartlett": 20081, "2019": 10476, "silly": 10021, "scrape": 26988, "\u3066": 1665, "[unused14]": 15, "hasty": 27151, "\u308d": 1689, "covenant": 16077, "softer": 19013, "ludwig": 10302, "r": 1054, "wait": 3524, "banana": 15212, "computation": 22334, "inheritance": 12839, "[unused910]": 915, "sara": 7354, "##{": 29640, "##\uff09": 30514, "##icon": 28524, "##iny": 24300, "##\u5341": 30309, "symmetry": 14991, "milton": 9660, "appearing": 6037, "##gio": 11411, "successes": 14152, "ethernet": 26110, "\u110f": 1466, "mustard": 23187, "und": 6151, "andhra": 14065, "##ts": 3215, "1690": 24765, "braced": 15515, "1940": 3878, "wetland": 22217, "bassett": 28303, "folder": 19622, "##castle": 23662, "undergraduate": 8324, "mori": 22993, "fades": 26784, "felicia": 27579, "clair": 17936, "suggestion": 10293, "totaling": 21798, "holden": 9988, "denied": 6380, "dramatic": 6918, "converts": 19884, "hillary": 18520, "##words": 22104, "madden": 24890, "lowe": 14086, "karen": 8129, "reintroduced": 28263, "hunters": 9624, "gestapo": 26446, "reports": 4311, "##pia": 19312, "birthplace": 14508, "ultimately": 4821, "engagements": 20583, "conqueror": 25466, "##orous": 25373, "regarded": 5240, "liu": 8607, "sensitive": 7591, "prefecture": 7498, "c": 1039, "##feld": 8151, "colombo": 16224, "##iger": 17071, "evidenced": 21328, "calcium": 13853, "canton": 8770, "dynamics": 10949, "enables": 12939, "sinn": 26403, "ten": 2702, "mumbai": 8955, "pontifical": 22362, "botswana": 19414, "angrily": 14136, "photo": 6302, "sylvie": 26009, "harmony": 9396, "pines": 17527, "arcadia": 25178, "##uch": 10875, "##\u0268": 29684, "entertain": 20432, "reg": 19723, "##buro": 23670, "taxa": 23726, "ryan": 4575, "##land": 3122, "sits": 7719, "really": 2428, "hackney": 28425, "locals": 10575, "cobalt": 25627, "##hawk": 17998, "sound": 2614, "1872": 7572, "brenda": 15507, "bromwich": 27888, "]": 1033, "levin": 20206, "prehistoric": 14491, "gallery": 3916, "reading": 3752, "guests": 6368, "volume": 3872, "lists": 7201, "pradesh": 7970, "thing": 2518, "cherry": 9115, "premiership": 11264, "##oku": 21940, "##side": 7363, "dell": 12418, "rosario": 17496, "sprinted": 25156, "stars": 3340, "exhaust": 15095, "thursday": 9432, "crow": 11465, "##uru": 14129, "angelo": 12262, "banners": 23562, "fullback": 21803, "##\u5916": 30335, "##unas": 23904, "##\u0438\u0438": 15414, "coventry": 13613, "##athing": 22314, "consume": 16678, "acknowledge": 13399, "sms": 22434, "tread": 29449, "culturally": 20547, "camilla": 26902, "forge": 15681, "##pi": 8197, "matt": 4717, "decree": 10037, "shea": 16994, "\u0989": 1350, "ignores": 26663, "##rr": 12171, "established": 2511, "composer": 4543, "statute": 11671, "potsdam": 26554, "repression": 22422, "fearing": 14892, "munster": 11348, "predicting": 29458, "bread": 7852, "sounding": 9391, "thyroid": 29610, "collisions": 28820, "westphalia": 22952, "installing": 23658, "[unused291]": 296, "watkins": 17055, "tackled": 26176, "interrupted": 7153, "temporarily": 8184, "fauna": 15018, "davis": 4482, "making": 2437, "immortal": 12147, "hides": 17382, "preferences": 18394, "senses": 9456, "wanderers": 14237, "##hun": 17157, "remembered": 4622, "trapped": 7567, "rocked": 14215, "siding": 17326, "manila": 9011, "advance": 5083, "swimming": 5742, "amendment": 7450, "torch": 12723, "##vary": 21639, "forestry": 13116, "\u02bc": 1146, "impacts": 14670, "succeeded": 4594, "dom": 14383, "procurement": 21423, "childhood": 5593, "depart": 18280, "timothy": 10805, "recognise": 17614, "miranda": 9392, "unofficially": 29322, "gideon": 12137, "##,": 29623, "##uttered": 23128, "##ental": 21050, "headache": 14978, "##ours": 22957, "spirituality": 21244, "katy": 17870, "[unused120]": 125, "belize": 18867, "assistance": 5375, "tablets": 17596, "mill": 4971, "\u0e2a": 1420, "onstage": 23542, "strawberry": 16876, "descendant": 12608, "charged": 5338, "appropriate": 6413, "infiltrate": 29543, "jeff": 5076, "savanna": 22323, "\u1112": 1469, "90s": 17233, "scars": 13521, "productions": 5453, "1819": 12552, "qi": 18816, "drag": 8011, "ferdinand": 9684, "metabolism": 18089, "monica": 9018, "21": 2538, "gained": 4227, "tess": 15540, "transitions": 22166, "cues": 23391, "##weed": 18041, "db": 16962, "abuses": 21078, "big": 2502, "herald": 9536, "##lase": 25002, "approval": 6226, "maximus": 21692, "encompassed": 24058, "suspend": 28324, "snails": 13482, "solemn": 19487, "##ignant": 25593, "waldo": 28806, "##\u3088": 30210, "cheated": 22673, "##tto": 9284, "na": 6583, "alfred": 6152, "showtime": 23811, "##\u6771": 30405, "outdated": 25963, "devon": 7614, "cheekbones": 27181, "aspirations": 22877, "calm": 5475, "accumulation": 20299, "carlton": 12989, "databases": 17881, "##gong": 17036, "cube": 14291, "##media": 16969, "methods": 4725, "makers": 11153, "horrified": 14603, "inference": 28937, "alvin": 17348, "leaked": 15748, "no": 2053, "favorites": 20672, "pear": 28253, "modernist": 19770, "##sm": 6491, "backward": 8848, "tun": 27112, "darlington": 19667, "tesla": 26060, "comune": 21130, "barred": 15605, "nutrients": 20435, "\u2095": 1564, "ranged": 15844, "\u2020": 1526, "riding": 5559, "baron": 5797, "##parts": 26950, "questioned": 8781, "obsolete": 15832, "snuggled": 26867, "fundraiser": 28536, "\u4ebb": 1757, "##cano": 23803, "petit": 17268, "innate": 25605, "##\u093f": 29877, "produce": 3965, "potent": 16834, "gin": 18353, "carnival": 11485, "giacomo": 22873, "migrated": 13447, "grammatical": 24402, "lissa": 20244, "[unused622]": 627, "countess": 11716, "abe": 14863, "awkward": 9596, "reorganization": 17118, "chicago": 3190, "parks": 6328, "##ruff": 26919, "eurovision": 12714, "collier": 20466, "aj": 19128, "covered": 3139, "##lich": 18337, "plea": 14865, "##nee": 24045, "1913": 5124, "##otho": 29288, "criminal": 4735, "acclaim": 10761, "deaths": 6677, "##fighter": 20027, "ry": 29431, "\u2190": 1583, "disappointment": 10520, "boogie": 21495, "characterization": 23191, "metals": 11970, "variants": 10176, "detecting": 25952, "ended": 3092, "##\u09af": 29907, "cycles": 12709, "experience": 3325, "ministers": 7767, "importance": 5197, "prodigy": 28334, "minute": 3371, "valencia": 13083, "whites": 12461, "##\u0564": 29769, "whitish": 16800, "##truct": 18300, "steering": 9602, "supplements": 25654, "volcano": 12779, "butler": 7055, "finely": 22126, "lenny": 19065, "soothing": 16684, "##osi": 20049, "mba": 15038, "janet": 9965, "##rant": 17884, "ortega": 25859, "beat": 3786, "selective": 13228, "ledger": 27106, "unmarried": 17204, "inhabit": 21490, "shrink": 22802, "cornerstone": 23354, "green": 2665, "##\u0279": 29691, "##\u0289": 29697, "guitars": 7334, "pool": 4770, "entered": 3133, "dir": 16101, "##board": 6277, "steaming": 19986, "##ivism": 22486, "burnham": 25295, "\u09b6": 1374, "colleague": 11729, "wearing": 4147, "bison": 22285, "lashes": 16008, "national": 2120, "[unused287]": 292, "1930": 4479, "punch": 8595, "greene": 11006, "vince": 12159, "1782": 16890, "##chule": 20269, "1936": 4266, "straits": 18849, "mentioned": 3855, "marked": 4417, "##irus": 26013, "constituencies": 13315, "##chemical": 15869, "cola": 15270, "sharp": 4629, "mate": 6775, "tendency": 11765, "applause": 20737, "1736": 28192, "participate": 5589, "kellogg": 26129, "shale": 18488, "severely": 8949, "seniors": 15995, "streaked": 21276, "philanthropist": 15246, "period": 2558, "batter": 23801, "diocesan": 18680, "becky": 14407, "marie": 5032, "worrying": 15366, "[unused135]": 140, "##lce": 23314, "unpaid": 23850, "fantasies": 21233, "retreating": 17512, "genuine": 10218, "restructuring": 18322, "[unused139]": 144, "countries": 3032, "dowager": 20508, "look": 2298, "undertaking": 18457, "panicked": 16035, "aroused": 18391, "##notes": 20564, "does": 2515, "turrets": 21088, "assisted": 7197, "shattered": 10909, "grapes": 16575, "barcelona": 7623, "boone": 15033, "morale": 19292, "addition": 2804, "arise": 13368, "demos": 18267, "monks": 9978, "##\u063a": 29831, "retention": 20125, "\u4e94": 1753, "miracles": 17861, "pts": 19637, "brushes": 22569, "outlaws": 23107, "hill": 2940, "friendship": 6860, "xiii": 15031, "functionality": 15380, "##ense": 16700, "1911": 5184, "whistled": 26265, "patience": 11752, "likeness": 28275, "##\u1d47": 30033, "business": 2449, "welterweight": 20882, "basketball": 3455, "biennale": 21140, "marriott": 26490, "##\u0437": 29744, "rag": 17768, "boss": 5795, "striking": 8478, "symphony": 6189, "another": 2178, "psyche": 25774, "clearly": 4415, "reindeer": 29495, "[unused499]": 504, "poorer": 27196, "npr": 21411, "##rcus": 29006, "##ming": 6562, "##glio": 29480, "control": 2491, "sweeney": 21178, "##\u5cf6": 30359, "fusiliers": 27207, "[unused992]": 997, "tumors": 21434, "##\u1106": 29995, "drowning": 14759, "clockwise": 22839, "##isi": 17417, "##foil": 24323, "bust": 13950, "ardent": 25314, "hd": 10751, "assets": 7045, "tnt": 24048, "licenses": 15943, "##ef": 12879, "clyde": 12085, "multinational": 20584, "##\u30b3": 30230, "sweetly": 22557, "wta": 21925, "\u0142": 1105, "laced": 17958, "##ington": 7853, "racial": 5762, "styling": 20724, "buckley": 17898, "rodney": 13898, "##linger": 23101, "##rly": 21194, "members": 2372, "##minated": 26972, "##beck": 12750, "broadway": 5934, "cement": 11297, "migratory": 22262, "##puram": 17809, "mohammad": 12050, "paralysis": 26287, "separation": 8745, "cpi": 28780, "wasps": 23146, "##16": 16048, "##cle": 14321, "defending": 6984, "collin": 22180, "bologna": 14102, "tape": 6823, "skulls": 21542, "nyc": 16392, "dye": 18554, "surfing": 19967, "joshua": 9122, "inactive": 16389, "wine": 4511, "burnett": 13829, "about": 2055, "runes": 29161, "1953": 4052, "archaeology": 12009, "mir": 14719, "skopje": 29255, "##eli": 20806, "arrivals": 25470, "preserve": 7969, "streak": 9039, "17": 2459, "\u5f18": 1843, "rotor": 18929, "\u05d3": 1244, "bandits": 19088, "laughed": 4191, "warped": 25618, "sesame": 23605, "\u027e": 1126, "stills": 26105, "caleb": 10185, "armored": 10612, "\u1019": 1437, "scott": 3660, "\uff09": 1988, "cicero": 23080, "universal": 5415, "[unused680]": 685, "foreigners": 15040, "music": 2189, "stripes": 13560, "lexie": 24123, "1834": 10700, "accolades": 27447, "##national": 25434, "[unused753]": 758, "onset": 14447, "nagar": 16395, "knowing": 4209, "compulsory": 14770, "harrison": 6676, "draw": 4009, "erupted": 12591, "rouse": 27384, "classifications": 26739, "wow": 10166, "circus": 9661, "corrupt": 13593, "berry": 10498, "##gles": 17125, "lux": 28359, "##icate": 24695, "placement": 11073, "prime": 3539, "##hil": 19466, "warns": 19428, "##tch": 10649, "celebrated": 6334, "lids": 26122, "landmark": 8637, "commune": 5715, "286": 24921, "aryan": 26030, "tile": 14090, "137": 14989, "##rona": 26788, "eisenhower": 16551, "frustrating": 25198, "2003": 2494, "##\u2261": 30134, "squealed": 26175, "whaling": 23687, "rolled": 4565, "perfection": 15401, "associations": 8924, "distinctions": 25995, "reflected": 7686, "receives": 8267, "quit": 8046, "barber": 13362, "\u3042": 1646, "departing": 15971, "smiling": 5629, "buddhist": 7992, "undergoing": 14996, "##nstein": 15493, "chevy": 29009, "try": 3046, "enrollment": 10316, "[unused599]": 604, "baritone": 14458, "which": 2029, "burden": 10859, "ko": 12849, "jonas": 10680, "249": 23628, "alarm": 8598, "mcdonald": 9383, "stages": 5711, "compensate": 19079, "whimper": 28544, "management": 2968, "teaming": 27025, "carla": 17081, "graphic": 8425, "erik": 10240, "suzy": 28722, "repertory": 21099, "exploited": 18516, "[unused821]": 826, "unnatural": 21242, "\u9593": 1969, "acknowledges": 28049, "kumar": 9600, "jerry": 6128, "hunan": 27374, "paterson": 19162, "scheduled": 5115, "capacities": 21157, "stepfather": 21481, "[unused663]": 668, "hangar": 18284, "marine": 3884, "enactment": 26465, "mccain": 19186, "petty": 11612, "oldham": 18285, "israel": 3956, "galway": 14370, "mas": 16137, "nonlinear": 27400, "eastwood": 24201, "conventional": 7511, "southeast": 4643, "lip": 5423, "##ring": 4892, "necessary": 4072, "indicted": 21801, "pepsi": 27237, "combinations": 14930, "##chemist": 24229, "text": 3793, "##lity": 18605, "prediction": 17547, "comte": 19758, "slash": 18296, "\u5916": 1809, "gallons": 18501, "morphology": 19476, "##\u05d0": 29788, "action": 2895, "adjustable": 26404, "##ang": 5654, "##dy": 5149, "##grapher": 18657, "becker": 15309, "##iful": 18424, "guaranteed": 12361, "altogether": 10462, "[unused362]": 367, "##hill": 7100, "barking": 19372, "##\u85e4": 30470, "\u2044": 1535, "sabre": 22002, "hays": 29051, "reasoning": 13384, "##\u207b": 30079, "##ses": 8583, "[unused259]": 264, "curses": 23897, "thinks": 6732, "confuse": 28679, "\u7701": 1920, "##\u0562": 29767, "##ease": 19500, "troop": 10123, "corrugated": 27186, "broadcasting": 5062, "collaborate": 20880, "travels": 7930, "terra": 14403, "stable": 6540, "blade": 6085, "pot": 8962, "1618": 29029, "##\u3042": 30172, "neural": 15756, "183": 18677, "[unused749]": 754, "launch": 4888, "unfinished": 14342, "vampires": 6144, "cinderella": 21686, "shropshire": 19322, "assortment": 26285, "[unused467]": 472, "examines": 20798, "##set": 13462, "climbs": 18881, "ceased": 7024, "[unused748]": 753, "##ards": 18117, "##the": 10760, "##\u0e21": 29951, "hesitantly": 24626, "exhaled": 16242, "preseason": 20038, "##\u2070": 30071, "want": 2215, "lean": 8155, "sank": 7569, "enjoy": 5959, "dispose": 27764, "influences": 8092, "ether": 28855, "inconsistent": 20316, "portage": 25140, "pike": 12694, "crawled": 12425, "##rank": 26763, "uefa": 6663, "325": 19652, "##lization": 22731, "friedman": 18486, "##arus": 29133, "chain": 4677, "kirk": 11332, "1718": 26995, "##ding": 4667, "2001": 2541, "hostilities": 17601, "thayer": 25563, "sheffield": 8533, "1774": 17593, "barbados": 16893, "sweets": 26844, "bike": 7997, "initiating": 26616, "407": 28941, "suzanne": 15146, "pivotal": 20369, "designate": 24414, "fatigue": 16342, "\u060c": 1268, "brush": 8248, "dominates": 29532, "chilled": 23362, "[unused913]": 918, "conical": 24750, "shudder": 18261, "leto": 24543, "myles": 27056, "##ogen": 23924, "cds": 14340, "tor": 17153, "added": 2794, "alley": 8975, "verity": 22178, "[unused553]": 558, "espionage": 21003, "1976": 3299, "hacking": 23707, "##horn": 9769, "##tein": 9589, "condition": 4650, "penang": 21812, "[unused538]": 543, "candy": 9485, "##cock": 13959, "renewed": 9100, "##bbed": 15499, "filtered": 21839, "##lide": 24198, "##sily": 26863, "outsider": 21002, "[unused220]": 225, "westward": 15165, "dividing": 16023, "##combe": 14149, "##ergy": 24395, "buenos": 9204, "spicy": 25482, "analysis": 4106, "orbiting": 26472, "##scent": 27654, "treated": 5845, "politicians": 8801, "convent": 10664, "odin": 26195, "##vington": 21827, "\u8857": 1946, "draught": 25349, "sharpened": 26694, "tolkien": 23602, "foreign": 3097, "commons": 7674, "\u0449": 1204, "aiden": 15086, "mia": 8764, "##nna": 9516, "nagasaki": 27107, "securing": 12329, "hook": 8103, "threatened": 5561, "exits": 16639, "praising": 15838, "colin": 6972, "clermont": 27956, "##tat": 29336, "ahmedabad": 27249, "jakob": 19108, "##skin": 29334, "197": 19975, "displeasure": 28606, "gough": 29124, "##kson": 26579, "screening": 11326, "workings": 24884, "cameroon": 13841, "##vot": 22994, "dessert": 18064, "faded": 8105, "intentions": 11174, "terminology": 18444, "##thest": 20515, "\u0584": 1239, "evicted": 25777, "chandra": 16469, "spells": 11750, "constable": 12294, "parade": 7700, "reinforce": 19444, "contests": 15795, "jozef": 23258, "qui": 21864, "sa": 7842, "##jas": 17386, "##hein": 26496, "fictitious": 23577, "roles": 4395, "finalized": 23575, "mira": 18062, "phosphate": 17344, "distances": 12103, "tko": 26537, "skyscraper": 24581, "naive": 15743, "jogged": 27812, "snacks": 27962, "impatience": 28011, "picking": 8130, "officially": 3985, "##ved": 7178, "grid": 8370, "##enity": 20693, "antony": 16262, "##\u2074": 30073, "breaks": 7807, "sheppard": 24976, "recall": 9131, "##ating": 5844, "##eg": 13910, "##anal": 27953, "##iensis": 27806, "dowry": 29603, "investigates": 28062, "##eras": 24140, "grasped": 15517, "archie": 13255, "sorts": 11901, "addicted": 23042, "##\u05d7": 29794, "##\u0569": 29771, "thrive": 25220, "##ble": 3468, "suburban": 9282, "arrangements": 7565, "##bang": 25153, "counted": 8897, "cambodia": 12899, "hurrying": 27951, "\u30b5": 1705, "burying": 20491, "zeppelin": 22116, "hash": 23325, "seaman": 21626, "puget": 27879, "##ication": 21261, "##izations": 22318, "1851": 8792, "henderson": 9481, "res": 24501, "bruce": 5503, "sickness": 15556, "vhf": 27527, "circling": 18519, "forms": 3596, "[unused231]": 236, "more": 2062, "favored": 12287, "reelection": 17648, "recognition": 5038, "brink": 20911, "resulted": 4504, "accompaniment": 22205, "cramer": 29433, "brook": 9566, "smug": 20673, "consultative": 28581, "attempted": 4692, "holds": 4324, "craftsmen": 25736, "papacy": 25097, "riots": 12925, "##9th": 25660, "1781": 16788, "humboldt": 19249, "ninja": 14104, "##ules": 16308, "colombian": 13598, "##zar": 9057, "potassium": 18044, "ze": 27838, "dune": 21643, "counties": 5721, "##masters": 27751, "wool": 12121, "##inski": 19880, "seamen": 28671, "selfish": 14337, "aquino": 24183, "\u028b": 1133, "##ckman": 24080, "finding": 4531, "scotch": 18937, "mendez": 28950, "ernie": 14637, "chevalier": 22019, "pere": 23976, "banda": 24112, "bids": 20723, "[unused894]": 899, "flowering": 10902, "concurrent": 16483, "##ace": 10732, "jealous": 9981, "##ols": 27896, "##oom": 17650, "originating": 14802, "##\u30e9": 30257, "trouble": 4390, "blues": 5132, "passion": 6896, "##\u09a8": 29902, "muhammad": 7187, "sash": 24511, "training": 2731, "unto": 19662, "pronounced": 8793, "hopeful": 17772, "1721": 27689, "vows": 16495, "dances": 11278, "forearms": 27323, "complain": 17612, "dismissed": 7219, "sidewalk": 11996, "\u2122": 1580, "##iza": 21335, "bs": 18667, "seminar": 18014, "gotten": 5407, "pile": 8632, "##hart": 10686, "jessica": 8201, "dispatch": 18365, "accessibility": 23661, "mermaid": 22322, "adams": 5922, "turned": 2357, "oxide": 15772, "san": 2624, "ribs": 10335, "penthouse": 22855, "whenever": 7188, "siam": 25583, "balkan": 17581, "\u1da0": 1512, "youths": 19634, "vanessa": 13226, "pajamas": 27621, "raining": 24057, "hotspur": 25985, "assassinate": 25683, "##sable": 19150, "##iction": 28097, "clements": 28572, "habitat": 6552, "impromptu": 29213, "southern": 2670, "lucien": 11732, "tower": 3578, "rn": 29300, "##\u0935": 29871, "occasions": 6642, "mann": 10856, "[unused338]": 343, "stanley": 6156, "emil": 16243, "[unused496]": 501, "[unused494]": 499, "##mac": 22911, "[unused286]": 291, "tchaikovsky": 25900, "wildcats": 19495, "kincaid": 24510, "##itical": 26116, "considering": 6195, "biased": 25352, "pushed": 3724, "treasures": 17605, "##stis": 29472, "##ste": 13473, "redistribution": 25707, "nave": 12847, "##ndt": 26379, "instructional": 23219, "networks": 6125, "panther": 15133, "225": 14993, "sphere": 10336, "jennifer": 7673, "severn": 24753, "midland": 12240, "##fires": 26332, "served": 2366, "mandir": 22700, "stockport": 26284, "\u304d": 1652, "riaa": 22716, "\u8279": 1939, "pitch": 6510, "ni": 9152, "##rana": 16737, "clarence": 11805, "induced": 10572, "cuffs": 24347, "superhuman": 27061, "flipping": 18497, "repairs": 10315, "exceptional": 11813, "!": 999, "therapy": 7242, "judas": 25326, "hydraulic": 14761, "mana": 24951, "##cliffe": 18115, "sheets": 8697, "bassist": 9858, "booker": 16674, "##taro": 28160, "redemption": 18434, "woodstock": 21028, "banging": 22255, "horizontally": 23190, "1670": 26253, "...": 2133, "\u30ad": 1701, "switch": 6942, "namibia": 15408, "mayoral": 23578, "bolted": 18088, "recently": 3728, "leslie": 8886, "[unused844]": 849, "rotary": 16933, "elected": 2700, "susannah": 20471, "competitive": 6975, "1733": 27230, "##tled": 14782, "contractors": 16728, "lookout": 19052, "realised": 11323, "wastewater": 28269, "kraft": 26680, "windshield": 19521, "##\u306a": 30193, "doubtful": 21888, "##quette": 29416, "separated": 5459, "shipped": 12057, "fans": 4599, "aerial": 9682, "pennsylvania": 3552, "currency": 9598, "continuing": 5719, "crusaders": 18831, "##die": 10265, "relocation": 18344, "petrol": 17141, "howie": 28211, "spokane": 21878, "blocking": 10851, "disappearance": 13406, "yao": 23711, "participant": 13180, "chefs": 27828, "each": 2169, "town": 2237, "spec": 28699, "[unused144]": 149, "\u20a9": 1573, "genes": 9165, "##lius": 15513, "##\u6708": 30398, "fooled": 25857, "\u0f63": 1435, "attraction": 8432, "octave": 21817, "ivo": 28346, "southbound": 19751, "intervening": 26623, "##\u0e27": 29955, "robe": 11111, "\u0e17": 1412, "estimated": 4358, "voters": 7206, "encourage": 8627, "hartford": 13381, "michigan": 4174, "##esh": 9953, "horned": 26808, "neolithic": 19061, "##ung": 5575, "rings": 7635, "sharon": 10666, "##rna": 12789, "chicken": 7975, "filippo": 28669, "##ifiers": 28295, "brooklyn": 6613, "insulting": 23979, "magnet": 16853, "wives": 10403, "tuberculosis": 15877, "join": 3693, "riders": 8195, "thor": 15321, "##uppe": 29547, "henri": 8863, "acts": 4490, "ascended": 19644, "44": 4008, "provinces": 6941, "\u2021": 1527, "southernmost": 21787, "prosecutors": 19608, "##woods": 25046, "##\u1d40": 30031, "##ciation": 23247, "##rrado": 27933, "geology": 13404, "laser": 9138, "##stadt": 21543, "poetic": 13805, "##ids": 9821, "purse": 8722, "clay": 5726, "\u00a5": 1071, "suffer": 9015, "scrambling": 25240, "rounding": 26939, "hardcover": 20990, "cheerleading": 25721, "my": 2026, "##nty": 29405, "graduated": 3852, "autobiographical": 18534, "greenberg": 24190, "interrupt": 17938, "lok": 13660, "dress": 4377, "\u10d1": 1439, "lumpur": 17761, "vacation": 10885, "##position": 26994, "\u0e1e": 1414, "1930s": 5687, "lia": 22393, "purported": 27023, "clauses": 24059, "vamp": 20279, "invaded": 10836, "author": 3166, "graz": 26918, "vladimir": 8748, "steele": 12872, "\u05de": 1255, "##vation": 21596, "##mission": 25481, "##uda": 14066, "milestone": 19199, "winthrop": 28974, "##dad": 14697, "pi": 14255, "sql": 29296, "##\u4f1a": 30289, "promised": 5763, "failure": 4945, "entirely": 4498, "[unused454]": 459, "pamphlets": 24752, "##\u30df": 30250, "chinatown": 22321, "crumbling": 24827, "corn": 9781, "sophomore": 13758, "chapter": 3127, "fewer": 8491, "##logue": 24277, "##iere": 21253, "breathed": 8726, "there": 2045, "##\u2044\u2084": 27392, "mundane": 24684, "mourning": 16236, "kit": 8934, "olaf": 20514, "[unused562]": 567, "plantation": 10065, "bonfire": 28698, "[unused125]": 130, "attending": 7052, "objects": 5200, "cole": 5624, "watery": 28259, "##por": 17822, "poison": 9947, "picturesque": 23273, "found": 2179, "sunrise": 13932, "incomes": 29373, "cbs": 6568, "\u5b87": 1819, "pac": 14397, "twist": 9792, "viral": 13434, "understood": 5319, "\u90e8": 1960, "\u03c1": 1171, "cheyenne": 17778, "[unused583]": 588, "connection": 4434, "chang": 11132, "cornelius": 17354, "mysteries": 15572, "nantes": 25387, "sherwood": 19427, "onion": 20949, "handball": 12378, "##lik": 18393, "##rked": 19849, "usa": 3915, "##\u1d63": 30043, "supports": 6753, "enveloped": 25407, "azure": 24296, "sportsman": 27168, "despised": 26626, "barley": 21569, "reviewer": 12027, "1702": 26776, "attorneys": 16214, "tunic": 23002, "fx": 23292, "plaintiffs": 23953, "accomplishment": 24718, "##erian": 27549, "tiffany": 14381, "publicly": 7271, "##lly": 9215, "*": 1008, "dragged": 7944, "scowl": 19981, "locus": 25206, "cage": 7980, "headmaster": 16296, "guantanamo": 23094, "evaluation": 9312, "\u2090": 1560, "##hon": 8747, "##\u897f": 30473, "ordained": 9492, "ct": 14931, "replicate": 28024, "pow": 23776, "boca": 22765, "validity": 16406, "eun": 26070, "locating": 26339, "1841": 9840, "nearer": 20388, "club": 2252, "transgender": 16824, "##\u5fb7": 30374, "##lining": 16992, "sustaining": 22663, "seed": 6534, "firms": 9786, "sociologist": 25106, "1580": 28278, "players": 2867, "##\u09a4": 29898, "sponge": 25742, "forbes": 10822, "overgrown": 26433, "bryn": 19904, "regulates": 26773, "laundry": 14533, "baghdad": 13952, "peanuts": 27613, "intercept": 19115, "storytelling": 20957, "1843": 10075, "whereabouts": 18913, "delta": 7160, "patronage": 15694, "\u9547": 1966, "ia": 24264, "championed": 28683, "songwriter": 6009, "interact": 11835, "##rasia": 27839, "girlfriends": 27408, "##hand": 11774, "forts": 15421, "ahead": 3805, "footballers": 27784, "tossing": 15021, "applicants": 17362, "enters": 8039, "##uls": 28426, "##zumi": 28114, "cheering": 24867, "punishments": 29115, "sofie": 26359, "notion": 9366, "ink": 10710, "\u0baf": 1390, "mongols": 22235, "##dha": 17516, "##bial": 21102, "##mis": 15630, "pm": 7610, "marianne": 19887, "nelly": 29498, "abolitionist": 29554, "##pper": 18620, "keeps": 7906, "merchandise": 16359, "otis": 18899, "##bos": 15853, "columbian": 25882, "evident": 10358, "##aver": 22208, "repeating": 15192, "reunite": 25372, "bala": 21451, "jeremy": 7441, "restoration": 6418, "nueva": 24536, "already": 2525, "frost": 10097, "malta": 9933, "sugarcane": 28910, "rowland": 20539, "abbot": 11428, "unpredictable": 21446, "doses": 21656, "estimate": 10197, "vegetarian": 23566, "radha": 26498, "##mund": 25574, "##umber": 29440, "formations": 13197, "snarl": 24845, "breaking": 4911, "bailey": 8925, "aforementioned": 17289, "contractor": 13666, "distinguished": 5182, "##mot": 18938, "tortured": 12364, "\u0e32": 1422, "molecule": 13922, "pakistani": 9889, "numb": 15903, "persist": 29486, "pairing": 22778, "crater": 11351, "retiring": 9150, "specialty": 12233, "##han": 4819, "emerged": 6003, "##loh": 24729, "friar": 25287, "soap": 7815, "gabled": 26182, "scuba": 28651, "invaders": 17347, "extinction": 14446, "forwards": 19390, "ancestor": 13032, "rex": 10151, "shaken": 16697, "tufts": 25252, "meaningless": 25120, "marvelous": 28851, "reactive": 22643, "supplementary": 26215, "humor": 8562, "lazy": 13971, "comes": 3310, "govt": 22410, "planner": 24555, "##venting": 26703, "striker": 11854, "##ffa": 20961, "kathryn": 20484, "\u30a6": 1696, "##elling": 23918, "bags": 8641, "baxter": 14664, "ultra": 11087, "daytime": 12217, "notified": 19488, "##harat": 28074, "381": 29335, "crimes": 6997, "avoid": 4468, "##59": 28154, "##sden": 27903, "radiated": 23000, "sentiments": 23541, "##ider": 18688, "yd": 21076, "amelia": 11556, "motive": 15793, "video": 2678, "id": 8909, "scouting": 14299, "drugged": 25483, "##ey": 3240, "82": 6445, "malaria": 19132, "atlantis": 16637, "asserts": 19514, "commentator": 12268, "queensland": 5322, "wesley": 11482, "johnny": 5206, "\u092f": 1332, "\u99ac": 1980, "critical": 4187, "fabric": 8313, "elliott": 9899, "malley": 25271, "1680": 24621, "##nged": 21558, "strong": 2844, "roaming": 24430, "assaults": 22664, "organic": 7554, "yet": 2664, "como": 18609, "company": 2194, "distortion": 20870, "routed": 19578, "amadeus": 27185, "peninsula": 6000, "supposed": 4011, "##stic": 10074, "[unused60]": 61, "##mill": 19912, "##mous": 27711, "church": 2277, "intercontinental": 18725, "##\u00a5": 29648, "improvisation": 24584, "positioned": 10959, "official": 2880, "involuntary": 26097, "\u0915": 1315, "reddy": 18998, "elegant": 11552, "\u0279": 1125, "heaven": 6014, "brightness": 18295, "conway": 14783, "nationalism": 14594, "tobago": 17247, "##ganj": 22738, "postdoctoral": 29272, "mane": 23055, "##open": 26915, "overnight": 11585, "##\u535a": 30312, "maddy": 20789, "##lham": 25968, "explicit": 13216, "tirana": 24631, "\u9234": 1965, "[unused880]": 885, "considers": 10592, "interred": 13917, "reducing": 8161, "criterion": 19229, "aachen": 29093, "cummings": 20750, "posing": 20540, "localities": 19664, "softened": 16573, "straightened": 11168, "550": 13274, "##ota": 17287, "headlines": 19377, "##lings": 11227, "foe": 22277, "bulldog": 28628, "incidents": 10444, "probably": 2763, "[unused633]": 638, "callie": 20072, "##tan": 5794, "bacon": 11611, "abbess": 28010, "overboard": 27089, "mural": 15533, "character": 2839, "1811": 13086, "edouard": 21627, "oh": 2821, "##ones": 21821, "po": 13433, "##sus": 13203, "##rrier": 27051, "168": 16923, "fivb": 28423, "lifeboat": 23450, "terrace": 11134, "argue": 7475, "taliban": 16597, "1860": 7313, "slated": 18517, "genre": 6907, "proceedings": 8931, "##\u5dde": 30362, "grafton": 28680, "ineligible": 22023, "reserved": 9235, "##\u1d2e": 30027, "evacuated": 13377, "demo": 9703, "wisdom": 9866, "##folding": 21508, "horns": 11569, "##\u3075": 30200, "[unused802]": 807, "housemates": 28152, "alt": 12456, "against": 2114, "denise": 15339, "lend": 18496, "fern": 20863, "wien": 22782, "1734": 27367, "mandates": 25979, "twelve": 4376, "wei": 11417, "principality": 18018, "reportedly": 7283, "evolved": 7964, "avila": 29079, "migrants": 16836, "##roid": 22943, "forever": 5091, "newscast": 20306, "thirsty": 24907, "cheryl": 19431, "flex": 23951, "bestseller": 24304, "bites": 15424, "##erson": 18617, "fictional": 7214, "[unused121]": 126, "##cian": 14483, "##nan": 7229, "2000": 2456, "##jah": 18878, "freshwater": 12573, "abuse": 6905, "##\u0cb0": 29937, "soared": 29127, "acute": 11325, "roses": 10529, "##mona": 21781, "[unused426]": 431, "oak": 6116, "kb": 21677, "egypt": 5279, "manchu": 26650, "bred": 13680, "hooker": 17074, "sodium": 13365, "why": 2339, "banning": 21029, "entertaining": 14036, "40th": 16541, "##ulator": 20350, "\u2f65": 1634, "adoption": 9886, "embrace": 9979, "shady": 22824, "204": 19627, "##\u7f8e": 30461, "lennon": 14294, "##ffey": 24513, "##uses": 25581, "##inger": 9912, "##cast": 10526, "cumulative": 23260, "gunther": 19384, "welfare": 7574, "biographer": 17121, "##op": 7361, "newman": 10625, "##hari": 18428, "1648": 22533, "##rk": 8024, "knockout": 11369, "algeria": 11337, "malik": 14360, "\u11b8": 1488, "quantities": 12450, "spending": 5938, "interstate": 7553, "profiles": 17879, "pit": 6770, "island": 2479, "##hora": 16977, "haunted": 11171, "autonomy": 12645, "[unused34]": 35, "twins": 8178, "proposition": 14848, "broadcaster": 11995, "mega": 13164, "merely": 6414, "sees": 5927, "horace": 12757, "redwood": 27552, "stimulating": 27295, "planck": 26486, "[unused460]": 465, "\u0263": 1117, "prophecy": 14951, "faye": 19243, "toast": 15174, "halftime": 22589, "theme": 4323, "##\u8c37": 30477, "senator": 5205, "dickinson": 17590, "##cott": 13124, "##wn": 7962, "oscar": 7436, "shi": 11895, "##mento": 23065, "rita": 11620, "\u30c6": 1713, "sloppy": 28810, "turnout": 15512, "exhibited": 8176, "##onia": 12488, "##vered": 25896, ";": 1025, "##\u767a": 30440, "retro": 22307, "rohan": 28605, "rabbis": 25602, "[unused903]": 908, "##peration": 29487, "abel": 16768, "##ece": 26005, "champions": 3966, "negotiating": 18875, "losing": 3974, "##bbling": 15343, "utilizing": 16911, "stellar": 17227, "##lidae": 21595, "fielder": 25000, "brunette": 27261, "darwin": 11534, "references": 7604, "lama": 18832, "nhl": 7097, "news": 2739, "confront": 14323, "astonishing": 26137, "jurassic": 19996, "delighted": 15936, "##bbled": 12820, "medicinal": 20632, "ringing": 13060, "##americana": 27026, "##rable": 16670, "##\u677e": 30406, "##\u30e5": 30255, "saturday": 5095, "##ythe": 26688, "##chet": 20318, "##ne": 2638, "##nk": 8950, "mitch": 11857, "ginger": 14580, "lois": 15815, "burkina": 23089, "logistical": 28961, "unnecessary": 14203, "\u2071": 1537, "##rocity": 21735, "bella": 12101, "tibet": 13319, "[unused843]": 848, "osborne": 16732, "fiji": 11464, "bandages": 27993, "readers": 8141, "wo": 24185, "purcell": 26429, "intake": 13822, "masters": 5972, "scripts": 14546, "imam": 17189, "243": 22884, "shadowy": 22801, "##\u2192": 30113, "musical": 3315, "consultants": 22283, "##dt": 11927, "sorry": 3374, "ensures": 21312, "##lda": 15150, "keen": 10326, "fantastic": 10392, "##og": 8649, "spontaneously": 27491, "##bri": 23736, "crocodile": 21843, "medium": 5396, "[unused72]": 73, "englishman": 25244, "erroneously": 29411, "wonderland": 20365, "yells": 22114, "1859": 8165, "position": 2597, "cbe": 15852, "collaborations": 17437, "1918": 4271, "ins": 16021, "##23": 21926, "bars": 6963, "brass": 8782, "##min": 10020, "dyed": 28432, "hawks": 12505, "limits": 6537, "wits": 25433, "nouns": 19211, "seen": 2464, "ep": 4958, "robin": 5863, "soldiers": 3548, "campuses": 13696, "##\u0925": 29860, "amore": 26297, "montrose": 24990, "supernatural": 11189, "asteroid": 12175, "almost": 2471, "##\u02be": 29713, "\u884c": 1945, "oldest": 4587, "##cio": 9793, "shared": 4207, "\u1d3a": 1494, "organist": 16397, "johnson": 3779, "submission": 12339, "interests": 5426, "tropical": 5133, "206": 18744, "wrexham": 27119, "##cular": 15431, "transformation": 8651, "1937": 4347, "startup": 22752, "years": 2086, "rover": 13631, "trousers": 15292, "naturally": 8100, "rattled": 19252, "##do": 3527, "free": 2489, "##ock": 7432, "reese": 15883, "novice": 23131, "symbolic": 12613, "reality": 4507, "wildlife": 6870, "excuse": 8016, "evening": 3944, "\u098f": 1351, "isle": 8842, "netball": 25034, "moved": 2333, "cartoon": 9476, "ctv": 28720, "solemnly": 26294, "kidding": 12489, "##iso": 19565, "##lat": 20051, "gymnastics": 14002, "cognition": 26497, "galaxy": 9088, "poke": 26202, "##vin": 6371, "##yck": 28377, "municipal": 4546, "martini": 24480, "wendell": 24526, "roi": 25223, "[unused493]": 498, "posture": 16819, "delle": 24121, "mandolin": 17687, "biography": 8308, "percival": 27832, "##ae": 6679, "dam": 5477, "tomato": 20856, "installations": 14111, "\u0baa": 1388, "whilst": 5819, "##ucci": 16835, "detail": 6987, "[unused931]": 936, "armed": 4273, "[unused613]": 618, "catalan": 13973, "rufus": 18316, "##ibar": 26656, "temperament": 26270, "##lini": 22153, "mystical": 17529, "##\u2282": 30137, "pronouns": 26028, "##\u65b0": 30388, "justices": 19867, "italics": 19408, "party": 2283, "dalton": 12413, "solids": 26778, "knew": 2354, "facebook": 9130, "[unused392]": 397, "##hir": 11961, "filled": 3561, "handcuffs": 28338, "clint": 16235, "##loe": 26846, "##nbc": 28957, "intrigued": 18896, "bureau": 4879, "harvey": 7702, "panting": 15601, "simply": 3432, "strung": 23509, "moniker": 21937, "lost": 2439, "wrestler": 10706, "hunting": 5933, "rowing": 12037, "enzyme": 9007, "laguna": 18169, "hayes": 10192, "seizure": 18634, "##hai": 10932, "ud": 20904, "##wo": 12155, "danger": 5473, "lucky": 5341, "sgt": 17001, "monroe": 9747, "capt": 14408, "nik": 23205, "warmly": 22775, "doll": 10658, "robotic": 20478, "sentinel": 16074, "##ppe": 21512, "cameras": 8629, "\u30d8": 1721, "zoe": 11199, "bane": 25163, "##kus": 22332, "##holding": 23410, "gladstone": 21765, "##drik": 28730, "wondering": 6603, "heartland": 27399, "stockings": 26412, "shot": 2915, "knit": 22404, "prestigious": 8919, "spots": 7516, "biographies": 22056, "##alo": 23067, "1200": 14840, "ambitious": 12479, "beetles": 14538, "isabel": 11648, "tunes": 13281, "##insky": 20894, "##ster": 6238, "wooded": 17172, "##acing": 26217, "readily": 12192, "much": 2172, "##\u516b": 30297, "healthy": 7965, "##iste": 27870, "inviting": 15085, "collaborated": 8678, "##ties": 7368, "proof": 6947, "syllables": 20732, "bristol": 7067, "##lus": 7393, "societies": 8384, "##1": 2487, "mclean": 17602, "cora": 17195, "send": 4604, "pathetic": 17203, "calgary": 10112, "disapproval": 21406, "kidnapping": 15071, "scenes": 5019, "1807": 13206, "inability": 13720, "decreases": 17913, "wilkins": 22745, "peck": 18082, "##pa": 4502, "glare": 10982, "\u0431": 1181, "auf": 21200, "irregularities": 28868, "ordnance": 14445, "governed": 9950, "leicestershire": 20034, "##\u00a7": 29650, "##ella": 8411, "archaic": 19261, "transformed": 8590, "thoughtful": 16465, "steady": 6706, "little": 2210, "pena": 19409, "##ager": 17325, "injunction": 22928, "corbett": 24119, "##\u2015": 30053, "gabrielle": 16988, "nineteenth": 9137, "179": 20311, "scarf": 18982, "falkland": 25257, "##oki": 23212, "inquisition": 24638, "life": 2166, "##uta": 13210, "trailing": 12542, "poking": 21603, "confirm": 12210, "##lle": 6216, "realms": 18814, "renowned": 8228, "comprehensive": 7721, "internet": 4274, "##tze": 23102, "##\u0435\u0432\u0438\u0447": 22646, "yearly": 12142, "[unused18]": 19, "[unused198]": 203, "jeep": 14007, "price": 3976, "##ldon": 19932, "##ds": 5104, "##cend": 23865, "flanking": 24958, "##avi": 18891, "egg": 8288, "either": 2593, "humphrey": 15462, "cocked": 13179, "gaining": 8550, "businessmen": 17353, "breathless": 16701, "##gard": 13444, "underwood": 22751, "[unused351]": 356, "paused": 5864, "h\u2082o": 24833, "disclosed": 21362, "shire": 13182, "rani": 21617, "endelle": 29581, "weekdays": 19759, "keeping": 4363, "##hide": 26100, "carrying": 4755, "##mail": 21397, "surrey": 9948, "ruby": 10090, "staggering": 26233, "practiced": 9051, "fungal": 28079, "##chers": 21844, "##section": 29015, "##\u0283": 29696, "[unused642]": 647, "crook": 19302, "lark": 23404, "elongated": 17876, "pew": 29071, "lighthouse": 10171, "[unused566]": 571, "user": 5310, "##in": 2378, "##house": 4580, "pau": 29025, "provisions": 8910, "vendor": 21431, "##sdale": 15145, "bonuses": 29563, "noelle": 22336, "cub": 21987, "scrubbed": 27820, "[unused762]": 767, "regent": 11315, "belts": 18000, "bahia": 22474, "hideous": 22293, "133": 14506, "syrian": 9042, "downstream": 13248, "sane": 22856, "irs": 25760, "cow": 11190, "fundamentally": 24670, "arcade": 10877, "lowry": 27281, "tres": 24403, "hamas": 22129, "lyons": 16642, "tugging": 17100, "afrikaans": 28673, "##\u05ea": 29813, "uneven": 17837, "##zhou": 9791, "hinges": 25484, "growling": 22413, "tightly": 7371, "refer": 6523, "surge": 12058, "starboard": 25211, "knee": 6181, "massive": 5294, "wilde": 18575, "influx": 18050, "vanuatu": 27625, "##\u3001": 30161, "##\u0f42": 29962, "respondents": 25094, "qualities": 11647, "northernmost": 22037, "[unused988]": 993, "balkans": 19733, "nz": 20008, "mentions": 9704, "ballad": 11571, "\u056c": 1226, "\u0621": 1269, "##\u06be": 29844, "solving": 13729, "##mler": 18602, "1963": 3699, "medina": 15761, "ellen": 9155, "colonies": 8355, "rajasthan": 16815, "##abad": 10542, "precious": 9062, "\u6728": 1875, "releases": 7085, "leisure": 12257, "dr": 2852, "##kled": 19859, "hands": 2398, "##aith": 22465, "forefront": 22870, "148": 16459, "julie": 7628, "spirit": 4382, "violated": 14424, "[unused869]": 874, "lifts": 13695, "##tres": 19168, "gems": 20296, "##igan": 10762, "punta": 27377, "blouse": 18149, "injury": 4544, "##rdo": 20683, "maxim": 20446, "##anna": 25789, "333": 21211, "struggles": 11785, "##100": 18613, "directive": 16449, "tastes": 16958, "weekend": 5353, "malaysia": 6027, "##verted": 26686, "\u738b": 1909, "blessings": 24618, "visited": 4716, "\u0bae": 1389, "famed": 15607, "signaling": 14828, "120": 6036, "##uc": 14194, "##50": 12376, "southeastern": 8252, "\u0459": 1215, "wandered": 13289, "1803": 12651, "overcoming": 27363, "##tao": 28555, "madame": 10602, "enterprises": 9926, "##iss": 14643, "##\u771f": 30447, "musicians": 5389, "electric": 3751, "##\u03ba": 29726, "\u2022": 1528, "nod": 7293, "destination": 7688, "twin": 5519, "migration": 9230, "lineman": 24062, "##drum": 21884, "concentrations": 14061, "pageant": 12438, "dhaka": 16479, "chung": 15972, "cartridge": 15110, "kenya": 7938, "[unused285]": 290, "hungarians": 24027, "greece": 5483, "swedish": 4467, "\u961d": 1970, "ignore": 8568, "wielding": 26974, "worcestershire": 20218, "brightened": 28996, "\u00f7": 1099, "530": 23523, "edmonton": 10522, "compliment": 19394, "[unused301]": 306, "henry": 2888, "lenin": 17497, "flynn": 13259, "beige": 28799, "trace": 7637, "1850s": 16488, "##xed": 19068, "##ve": 3726, "106": 10114, "##meter": 22828, "dillon": 14602, "pleading": 16418, "anti": 3424, "swung": 7671, "metric": 12046, "##tur": 20689, "##flight": 28968, "36": 4029, "##vili": 21661, "pierce": 9267, "marge": 25532, "enforced": 16348, "ac": 9353, "\u8eca": 1954, "responses": 10960, "wiley": 18825, "cao": 12966, "vidhan": 28590, "senate": 4001, "sv": 17917, "fiat": 18550, "##ro": 3217, "##lz": 23858, "##sford": 17658, "info": 18558, "contradictory": 27894, "silvery": 21666, "endorsed": 11763, "dl": 21469, "dismiss": 19776, "floating": 8274, "##ometric": 28993, "band": 2316, "apparent": 6835, "chuck": 8057, "##ga": 3654, "##dder": 20791, "\u21a6": 1588, "carnegie": 11298, "internacional": 27607, "\u00bc": 1091, "scandinavia": 20612, "thump": 21324, "\u0192": 1108, "##vable": 12423, "programmes": 8497, "##olved": 16116, "\u0442": 1197, "townspeople": 27938, "##koto": 24886, "raj": 11948, "honored": 8686, "griffiths": 21960, "into": 2046, "came": 2234, "writer": 3213, "penn": 9502, "##gill": 19791, "##\u4f50": 30290, "melancholy": 22247, "darius": 14861, "##sic": 19570, "prose": 12388, "roadside": 25131, "regardless": 7539, "[unused579]": 584, "clouded": 26761, "poked": 16826, "\u0f66": 1436, "albuquerque": 19334, "stretched": 7121, "plausible": 24286, "##lous": 15534, "speeches": 13867, "422": 29269, "spilling": 18054, "jumped": 5598, "something": 2242, "##cies": 9243, "anastasia": 19447, "166": 18610, "mcgee": 22034, "doubling": 19383, "##orro": 29459, "andreas": 12460, "vii": 8890, "gala": 16122, "we": 2057, "gaunt": 27534, "##lab": 20470, "1921": 4885, "helsinki": 12331, "sk": 15315, "exaggerated": 16903, "weave": 25308, "##els": 9050, "loud": 5189, "modernism": 27254, "legitimate": 11476, "shy": 11004, "##mble": 19661, "##lund": 18028, "1540": 27536, "403": 28203, "bertrand": 20586, "subsided": 26588, "humour": 17211, "linux": 11603, "columnist": 13317, "levy": 12767, "sugar": 5699, "\u0dcf": 1408, "revolutionaries": 24517, "lopez": 8685, "yves": 19687, "yanking": 25716, "##\u0441": 29747, "rotting": 22005, "\u0985": 1347, "honor": 3932, "poisonous": 22641, "teammate": 10809, "##uis": 27020, "dialogues": 22580, "encoding": 17181, "krishna": 10871, "adultery": 29169, "\u2261": 1607, "liability": 14000, "rubber": 8903, "petite": 20146, "trip": 4440, "exploits": 20397, "##xton": 14226, "centuries": 4693, "buffy": 18467, "toe": 11756, "jody": 27562, "##economic": 23035, "wed": 21981, "##mounted": 27632, "[unused2]": 3, "configuration": 9563, "millennia": 27620, "vida": 19830, "joey": 9558, "verdict": 14392, "inhuman": 29582, "fumble": 19576, "5th": 4833, "hua": 23064, "corresponded": 27601, "##vb": 26493, "climax": 14463, "##\u300b": 30166, "[unused131]": 136, "swinging": 11820, "vary": 8137, "meyrick": 15228, "glen": 8904, "[unused322]": 327, "1845": 9512, "bathed": 24614, "\u5b66": 1817, "cheney": 23745, "manuscript": 8356, "lonely": 9479, "glorious": 14013, "interference": 11099, "ncaa": 5803, "today": 2651, "##vocation": 19152, "unincorporated": 7754, "troy": 9553, "sessions": 6521, "[unused567]": 572, "lectured": 19206, "slip": 7540, "tournament": 2977, "gentleman": 10170, "regulated": 12222, "tucked": 9332, "callum": 15229, "##ya": 3148, "fisher": 8731, "campaigned": 16196, "gustave": 27973, "tug": 12888, "pants": 6471, "metallic": 12392, "##\"": 29613, "hasan": 17000, "parody": 12354, "speculated": 15520, "1840s": 19308, "intersect": 29261, "reviewers": 15814, "philipp": 20765, "##\u5834": 30332, "starbucks": 29500, "firstly": 15847, "veronica": 13133, "chieftain": 26625, "##inating": 19185, "##oids": 17086, "mutation": 16221, "drawings": 9254, "arrogant": 15818, "mighty": 10478, "formulation": 20219, "buckled": 26368, "##\u0649": 29837, "franks": 21310, "recounted": 22906, "retrieved": 5140, "embroidered": 23590, "ghz": 29066, "curb": 13730, "|": 1064, "tobias": 16858, "daring": 15236, "##dley": 14232, "excited": 7568, "##sp": 13102, "legislator": 22964, "archives": 8264, "\u306c": 1669, "duran": 22959, "[unused712]": 717, "##band": 12733, "producer": 3135, "##cased": 28969, "morality": 16561, "##tsa": 27110, "toll": 9565, "guys": 4364, "mart": 20481, "grassy": 22221, "stench": 21555, "wax": 13844, "adopting": 16151, "directorate": 13634, "serialized": 27289, "##ache": 15395, "raiders": 10642, "crown": 4410, "##ib": 12322, "preferring": 21393, "aquatics": 26649, "trunk": 8260, "exhibit": 8327, "##lf": 10270, "programming": 4730, "russia": 3607, "piercing": 14628, "##yme": 25219, "pure": 5760, "[unused35]": 36, "rm": 28549, "mo": 9587, "slammed": 7549, "##cars": 20745, "title": 2516, "niche": 18111, "faulkner": 25109, "wing": 3358, "traffic": 4026, "breathe": 7200, "injured": 5229, "##arney": 25831, "logo": 8154, "garfield": 20170, "incorporates": 12374, "disappears": 17144, "sped": 16887, "bursting": 21305, "##giri": 23243, "indo": 11424, "attractive": 8702, "geological": 9843, "syndrome": 8715, "profound": 13769, "##imating": 22835, "redeveloped": 28053, "blackwell": 18776, "salim": 27490, "ramps": 24943, "moan": 13673, "ticket": 7281, "romani": 23982, "sebastian": 6417, "regal": 21279, "accessed": 11570, "dung": 29328, "prescribed": 16250, "##ulu": 20391, "##ggio": 20650, "garion": 12523, "thigh": 10120, "antoinette": 28429, "##life": 15509, "walters": 19097, "bitten": 19026, "noticeable": 17725, "venice": 7914, "eccentric": 18080, "physical": 3558, "accidentally": 9554, "switches": 15924, "parasitic": 26045, "[unused824]": 829, "suppression": 16341, "internally": 16058, "slain": 19668, "talks": 7566, "literature": 3906, "neatly": 15981, "sierra": 7838, "mascot": 13314, "dick": 5980, "protagonist": 10191, "affirmed": 19768, "raft": 21298, "sevens": 19463, "crowns": 24364, "passageway": 27336, "eternity": 12715, "branch": 3589, "lifeless": 22185, "plan": 2933, "father": 2269, "\u5c0f": 1829, "militia": 8396, "##ded": 5732, "\u05d7": 1248, "netflix": 20907, "[unused620]": 625, "lobbied": 26421, "concord": 16557, "228": 22238, "among": 2426, "##hini": 20535, "##\u0926": 29861, "feared": 8615, "\u82b1": 1940, "azores": 28320, "atomic": 9593, "conflicting": 19326, "##dable": 20782, "longed": 23349, "onboard": 27120, "80s": 16002, "tyrone": 18770, "dali": 29095, "reacher": 22970, "liberation": 7931, "kahn": 19361, "dropped": 3333, "expressed": 5228, "cords": 24551, "rochdale": 26109, "\u7684": 1916, "tyne": 17742, "alba": 18255, "bavaria": 11606, "kapoor": 17129, "gabe": 12900, "##zza": 20715, "magnus": 10045, "zionist": 21379, "swayed": 20122, "##\u1166": 30009, "bones": 5944, "-": 1011, "valid": 9398, "soho": 23771, "seek": 6148, "denoted": 19537, "transmission": 6726, "[unused592]": 597, "excitedly": 23885, "##khand": 25910, "rent": 9278, "regain": 12452, "[unused94]": 95, "assess": 14358, "1726": 28342, "agencies": 6736, "thou": 15223, "velvet": 10966, "pump": 10216, "decimal": 26066, "relegated": 7049, "##mony": 22847, "warmth": 8251, "##lore": 20186, "##culture": 14561, "resembles": 12950, "\u00b7": 1087, "facial": 13268, "dubois": 26258, "##ginal": 24965, "depth": 5995, "##mith": 19864, "stalks": 29594, "disappointing": 15640, "stir": 16130, "##ico": 11261, "booster": 23715, "sports": 2998, "newark": 12948, "##\u00f7": 29669, "amazement": 21606, "##sf": 22747, "refuse": 10214, "##inal": 13290, "ill": 5665, "##tative": 27453, "##lent": 16136, "commandant": 15254, "##hui": 20552, "[unused593]": 598, "unsuccessfully": 11551, "possession": 6664, "civilians": 9272, "anyway": 4312, "learners": 26262, "##out": 5833, "##istles": 28738, "##rta": 13320, "loaf": 27048, "[unused400]": 405, "##nta": 12380, "wan": 14071, "uttar": 14940, "sunk": 10417, "dong": 11947, "v8": 15754, "viper": 17947, "shipments": 24636, "wholly": 12590, "sharif": 20351, "airports": 13586, "hamburg": 8719, "##lica": 19341, "comprises": 8681, "##uge": 22890, "updated": 7172, "untitled": 24819, "1818": 12094, "ceiling": 5894, "reviewed": 8182, "refueling": 23026, "chili": 20238, "inspiring": 18988, "cameo": 12081, "descended": 9287, "calculations": 16268, "[unused227]": 232, "suburb": 7575, "mutual": 8203, "cosmetic": 25536, "mist": 11094, "pounding": 9836, "##eza": 28640, "makeshift": 19368, "williamsburg": 26366, "##\u30c8": 30240, "backpack": 13383, "tighten": 21245, "239": 23688, "oneself": 25763, "##dalen": 26414, "responded": 5838, "kat": 10645, "##rch": 11140, "pen": 7279, "##phobia": 24920, "tail": 5725, "allies": 6956, "prized": 25695, "july": 2251, "hurst": 26405, "cute": 10140, "cantata": 23629, "##ingly": 15787, "eats": 20323, "rely": 11160, "exam": 11360, "##vent": 15338, "shaft": 9093, "reassigned": 18026, "significant": 3278, "fergus": 21023, "inaugural": 7725, "this": 2023, "cochin": 28982, "autopsy": 24534, "peptide": 25117, "literacy": 8433, "saga": 12312, "1881": 7005, "mitchell": 6395, "lily": 7094, "hezbollah": 25713, "compelled": 15055, "##ky": 4801, "announce": 14970, "sigma": 13201, "vigorous": 21813, "che": 18178, "##dates": 27122, "##broken": 29162, "attendance": 5270, "runways": 24578, "##erence": 20935, "borough": 5538, "rookie": 8305, "\u0433": 1183, "cayman": 26164, "thunder": 8505, "yielded": 17544, "##vel": 15985, "recycled": 22207, "hotels": 9275, "[unused192]": 197, "337": 28489, "##nine": 19105, "airline": 8582, "profoundly": 28089, "innocent": 7036, "herb": 12810, "note": 3602, "difficult": 3697, "variant": 8349, "experimented": 20918, "informs": 15670, "smallpox": 25765, "dixie": 18910, "european": 2647, "fishes": 21995, "##tering": 17989, "nemesis": 21363, "craving": 26369, "competent": 17824, "initiatives": 11107, "##\u4e3b": 30273, "eden": 10267, "airspace": 29357, "falls": 4212, "rape": 9040, "guides": 12468, "costume": 9427, "este": 28517, "##\u03b7\u03c2": 29155, "sudanese": 25603, "appliances": 22449, "##aj": 13006, "talbot": 14838, "lizards": 23898, "##day": 10259, "151": 16528, "toured": 7255, ")": 1007, "ii": 2462, "philippine": 7802, "somali": 16831, "beliefs": 9029, "acquaintances": 29409, "brodie": 27379, "manufactured": 7609, "uniform": 6375, "feminism": 20050, "[unused170]": 175, "collects": 17427, "release": 2713, "massimo": 28080, "hermes": 24127, "hamlets": 21631, "1651": 29077, "lately": 9906, "chancel": 16482, "accommodations": 26167, "feminist": 10469, "vicky": 22845, "##ricted": 20623, "[unused415]": 420, "clinton": 7207, "##standing": 24911, "pentagon": 20864, "subscribers": 17073, "stationed": 8895, "mirror": 5259, "chemotherapy": 27144, "##meo": 26247, "muster": 20327, "begging": 12858, "professorship": 22661, "##\u7acb": 30457, "vibe": 21209, "paces": 24785, "[unused451]": 456, "inaugurated": 11070, "indus": 27746, "smelled": 9557, "sweaty": 19889, "architects": 8160, "lebanon": 8341, "##fl": 10258, "futile": 24495, "##rid": 14615, "26": 2656, "tract": 12859, "##sen": 5054, "chase": 5252, "[unused893]": 898, "preached": 21491, "##aged": 18655, "wichita": 18614, "western": 2530, "##less": 3238, "\u2084": 1551, "estates": 8707, "spurred": 22464, "lasting": 9879, "bucharest": 14261, "genome": 13458, "peanut": 21443, "delays": 14350, "dependence": 18642, "##zziness": 29212, "medalist": 12968, "fever": 9016, "##burn": 8022, "##bes": 12681, "wai": 23701, "lines": 3210, "[unused348]": 353, "##cule": 21225, "weight": 3635, "optional": 11887, "testosterone": 25937, "##genic": 16505, "newbury": 29457, "clarified": 20485, "divided": 4055, "shielding": 25553, "ominous": 23504, "susceptible": 18002, "malicious": 24391, "unbearable": 24257, "alistair": 23752, "[unused507]": 512, "##maid": 28478, "##ction": 7542, "per": 2566, "##dern": 25888, "internationale": 21339, "##pina": 26787, "gujarat": 14288, "lucknow": 23571, "[unused233]": 238, "reared": 23295, "##llo": 7174, "\u11a8": 1484, "simulate": 26633, "reformer": 24767, "willoughby": 24919, "reserve": 3914, "curiosity": 10628, "sights": 15925, "trapping": 22977, "ratified": 17673, "mussolini": 22554, "tilting": 21788, "diaspora": 18239, "##efined": 28344, "3": 1017, "plc": 15492, "hates": 16424, "recruiting": 14357, "##rip": 29443, "wig": 24405, "##mur": 20136, "completed": 2949, "##ted": 3064, "linebacker": 15674, "fredrik": 25454, "faction": 10233, "##mbling": 29256, "shelf": 11142, "##borg": 11755, "eminent": 14953, "\u4eac": 1755, "eldest": 7310, "facto": 13743, "wheel": 5217, "wellness": 25860, "grill": 18651, "francoise": 28979, "\u4f50": 1764, "##trick": 22881, "mammalian": 26524, "charleston": 10907, "vertigo": 28246, "256": 17273, "##vil": 14762, "##haw": 14238, "recession": 19396, "deteriorating": 28440, "highness": 17114, "##bbing": 23200, "murphy": 7104, "secretary": 3187, "##jia": 26541, "##ands": 29560, "captives": 21496, "[unused993]": 998, "wakes": 17507, "conceptual": 17158, "harden": 28751, "elmer": 21464, "##iy": 28008, "crank": 27987, "##\u79be": 30453, "adulthood": 20480, "examination": 7749, "enable": 9585, "##liest": 21292, "addressing": 12786, "specified": 9675, "rained": 28270, "lattice": 17779, "##\u0255": 29680, "tv": 2694, "russell": 5735, "\u30ab": 1700, "##eet": 15558, "purposely": 24680, "hugely": 27564, "royals": 15426, "##oran": 18842, "##lke": 28143, "sudden": 5573, "##\u00b4s": 21932, "conclusions": 15306, "kenton": 25446, "circled": 14867, "flared": 14937, "##pkins": 29531, "kings": 5465, "christchurch": 15880, "astonished": 22741, "##\u0dbb": 29941, "malls": 25943, "partnering": 27001, "ex": 4654, "basal": 15191, "realities": 22213, "swam": 16849, "shah": 7890, "gardiner": 21143, "suburbs": 9435, "clapped": 18310, "endeavors": 28809, "otto": 8064, "bursts": 19239, "impaired": 18234, "ran": 2743, "overthrow": 16857, "stefan": 8852, "belly": 7579, "bournemouth": 22882, "robbie": 12289, "sovereign": 11074, "catalyst": 16771, "charcoal": 18872, "indicate": 5769, "facilities": 4128, "relieved": 7653, "bored": 11471, "[unused196]": 201, "##eous": 14769, "divisional": 14167, "mused": 22335, "6": 1020, "overrun": 24672, "kiara": 28870, "harder": 6211, "command": 3094, "[unused576]": 581, "impulse": 14982, "lemon": 14380, "\u2227": 1602, "##trip": 24901, "maintaining": 8498, "##\u30ed": 30261, "##ld": 6392, "takahashi": 25585, "motorized": 26172, "meanings": 15383, "frogs": 17582, "innsbruck": 28914, "heels": 8265, "jeanne": 14537, "[unused238]": 243, "##ulum": 25100, "narayan": 24331, "312": 21036, "vast": 6565, "clock": 5119, "rewarded": 14610, "jesuit": 13840, "apart": 4237, "cleansing": 26799, "##sburg": 9695, "schumann": 29448, "lobster": 27940, "passes": 5235, "\u0259": 1114, "container": 11661, "vlad": 19163, "spectacle": 21177, "##esian": 25253, "harassed": 28186, "auditory": 28042, "mice": 12328, "eggs": 6763, "cw": 19296, "symmetric": 19490, "\u4fe1": 1767, "##fra": 27843, "##uma": 12248, "##ove": 21818, "phoebe": 18188, "spurs": 18205, "cough": 19340, "challenger": 12932, "[unused254]": 259, "vivid": 14954, "abyss": 22159, "##\u90e1": 30485, "##itive": 13043, "##uo": 19098, "ceremonial": 12961, "lublin": 18967, "indices": 29299, "directs": 23303, "shelley": 15828, "anticipating": 26481, "skeletal": 20415, "arrange": 13621, "cuisine": 12846, "mitochondrial": 23079, "choreography": 16967, "causes": 5320, "##ipes": 28108, "politician": 3761, "dodged": 28339, "airport": 3199, "##apes": 29040, "##erina": 26052, "brest": 22451, "chat": 11834, "supplied": 8127, "deutsche": 11605, "washing": 12699, "1746": 24507, "potentially": 9280, "##stown": 13731, "##dication": 25027, "[unused77]": 78, "3000": 11910, "[unused544]": 549, "##inates": 28184, "korea": 4420, "highly": 3811, "##vale": 17479, "maize": 21154, "wings": 4777, "##yala": 28617, "##jak": 18317, "1822": 12307, "##dock": 14647, "interned": 26345, "decrees": 28966, "strains": 18859, "[unused141]": 146, "livery": 18475, "torre": 22047, "idol": 10282, "socrates": 26772, "shower": 6457, "come": 2272, "##iac": 20469, "witchcraft": 21599, "##phone": 9864, "##\u6226": 30382, "special": 2569, "##lates": 26786, "\u694a": 1883, "##com": 9006, "##hire": 20908, "hs": 26236, "trinidad": 11856, "nico": 19332, "mfa": 26913, "hart": 7530, "button": 6462, "##um": 2819, "bryce": 19757, "##\u2085": 30081, "adamant": 29502, "[unused413]": 418, "##bic": 13592, "dunn": 14145, "sylvia": 13378, "au": 8740, "settling": 9853, "cruisers": 16722, "ray": 4097, "tomatoes": 12851, "##tai": 15444, "mean": 2812, "regis": 20588, "hiding": 6318, "huge": 4121, "titles": 4486, "impetus": 27961, "fingerprints": 27556, "ea": 19413, "jed": 24401, "icc": 16461, "euros": 19329, "potter": 10693, "whisky": 21265, "shelly": 28360, "##\u2022": 30063, "1662": 25909, "latin": 3763, "horseshoe": 23449, "##\u0435": 15290, "cleopatra": 22003, "##tty": 15353, "\u2030": 1530, "enthusiastic": 14727, "evolutionary": 12761, "##gan": 5289, "pastoral": 13645, "fordham": 27302, "ta": 11937, "1683": 27414, "tasked": 13487, "##poulos": 24662, "recipient": 7799, "our": 2256, "supervisor": 12366, "dunne": 26553, "##atin": 20363, "age": 2287, "translate": 17637, "pounder": 20091, "safety": 3808, "eels": 29317, "descending": 15127, "1875": 7466, "curled": 8188, "developer": 9722, "pulsed": 24107, "deteriorated": 20111, "##zhi": 19436, "##nick": 13542, "attractions": 13051, "1725": 25651, "sustainable": 9084, "wren": 16255, "[unused581]": 586, "gathers": 29438, "\u2070": 1536, "##hua": 14691, "capture": 5425, "##ery": 7301, "##jic": 25008, "applied": 4162, "penal": 18476, "tomorrow": 4826, "121": 12606, "attributed": 7108, "##ah": 4430, "34": 4090, "wolf": 4702, "##dal": 9305, "[unused901]": 906, "perpendicular": 19581, "\u4ee3": 1760, "##eil": 24359, "guiding": 14669, "##verance": 21998, "##iable": 19210, "##liness": 20942, "bilateral": 17758, "turbo": 15386, "norma": 20692, "[unused6]": 7, "reviewing": 15252, "malone": 16321, "oyster": 21480, "clouds": 8044, "\u6708": 1872, "whereas": 6168, "##sitor": 28307, "[unused729]": 734, "therese": 25598, "wife": 2564, "spartan": 20670, "serb": 20180, "tilted": 9939, "absolute": 7619, "##\u91d1": 30490, "beijing": 7211, "qualification": 8263, "##\u7fa9": 30462, "emergencies": 26360, "wherein": 16726, "##jee": 16963, "admire": 19837, "choreographed": 23317, "reflecting": 10842, "flicked": 12777, "sample": 7099, "affinity": 16730, "mirza": 18366, "ukraine": 5924, "shiny": 12538, "tests": 5852, "rake": 26008, "[unused174]": 179, "crows": 21623, "##farlane": 23511, "kaufman": 23699, "locomotive": 8098, "cautious": 17145, "continuation": 13633, "pinyin": 9973, "whitney": 9809, "[unused962]": 967, "helplessly": 24942, "guild": 9054, "rescuing": 23659, "portrays": 17509, "rich": 4138, "courtyard": 10119, "pancakes": 28470, "possesses": 14882, "giggled": 15889, "264": 21611, "volatile": 20606, "blessed": 10190, "barnes": 9957, "##corp": 24586, "improvement": 7620, "[unused188]": 193, "morning": 2851, "strides": 22215, "cd": 3729, "authorized": 9362, "2010": 2230, "chaplin": 23331, "fountain": 9545, "occupied": 4548, "##\u301c": 30171, "ob": 27885, "example": 2742, "##adan": 26335, "lowlands": 26411, "operatic": 22534, "reopened": 11882, "killer": 6359, "[unused705]": 710, "##litz": 24725, "stamp": 11359, "172": 18253, "accompanying": 10860, "sienna": 20210, "menon": 25111, "[unused556]": 561, "restrictions": 9259, "##zawa": 19708, "##yeh": 25673, "kitten": 18401, "[unused940]": 945, "auditorium": 11448, "fine": 2986, "##rey": 15202, "forehead": 6130, "inscription": 9315, "##fahan": 28975, "5000": 13509, "commencement": 20561, "variety": 3528, "##\u90fd": 30487, "monarchy": 12078, "1689": 22685, "chun": 20979, "marketed": 11625, "##tha": 8322, "authored": 8786, "offers": 4107, "rematch": 18229, "##oes": 22504, "nikolai": 13870, "anchored": 14453, "##ym": 24335, "plato": 18858, "performing": 4488, "##graphy": 12565, "ballots": 17069, "devils": 13664, "warren": 6031, "converting": 16401, "repeat": 9377, "breadth": 25291, "##pta": 22799, "elder": 6422, "ramsay": 19460, "flashes": 16121, "##sms": 19230, "gaston": 18572, "ipad": 25249, "temples": 8436, "##cu": 10841, "madrid": 6921, "insignia": 16751, "aeronautical": 25010, "shaky": 15311, "ox": 23060, "##endra": 19524, "intervals": 14025, "pencil": 14745, "finishing": 5131, "##ulin": 18639, "strikeouts": 20813, "suriname": 25050, "##\u533a": 30308, "hanging": 5689, "oxidation": 19577, "greer": 25939, "##cr": 26775, "vogue": 17734, "recording": 3405, "##yad": 25152, "uber": 19169, "ranked": 4396, "##rford": 26430, "##ago": 23692, "bare": 6436, "\u0686": 1303, "postwar": 20013, "##sr": 21338, "yarmouth": 28792, "\u0645": 1295, "toulouse": 17209, "##\u9547": 30492, "platforms": 7248, "[unused217]": 222, "assignments": 14799, "hm": 20287, "professionals": 8390, "\u30ef": 1736, "entertained": 21474, "winged": 14462, "film": 2143, "field": 2492, "[unused264]": 269, "swearing": 25082, "##nea": 22084, "snowfall": 26043, "##nated": 23854, "[unused82]": 83, "ore": 10848, "vulture": 27588, "subdivided": 15369, "##\u0575": 29777, "knocked": 6573, "unconstitutional": 20454, "##raphy": 26228, "[unused701]": 706, "cuba": 7394, "1996": 2727, "main": 2364, "indefinitely": 20733, "pyramid": 11918, "cheeks": 6029, "donor": 15009, "##oy": 6977, "burnley": 23028, "ones": 3924, "vatican": 12111, "vocalist": 8032, "##nte": 10111, "##iness": 9961, "##bbies": 27982, "kept": 2921, "[unused339]": 344, "##wr": 13088, "tribe": 5917, "##lash": 27067, "cheese": 8808, "shitty": 28543, "[unused629]": 634, "swore": 12860, "##chuk": 26516, "##shi": 6182, "[unused252]": 257, "madagascar": 11934, "loose": 6065, "hungry": 7501, "bell": 4330, "guangdong": 21287, "increased": 3445, "hoax": 28520, "amber": 8994, "soto": 22768, "round": 2461, "abd": 19935, "feasible": 22945, "logs": 15664, "accounting": 9529, "obeyed": 22665, "iec": 24940, "##\u03b6": 29724, "cretaceous": 18122, "heats": 18559, "##tua": 26302, "##ife": 29323, "mri": 27011, "##active": 19620, "\u05e3": 1260, "guerrero": 16938, "disasters": 18665, "##rini": 22612, "endowed": 19038, "lifelong": 13506, "deputy": 4112, "sterile": 25403, "ohio": 4058, "##hwa": 18663, "[unused763]": 768, "humane": 23369, "timor": 19746, "wills": 17234, "##bate": 20179, "ravaged": 25537, "titanic": 20753, "[unused587]": 592, "##lized": 28931, "cigar": 19135, "explicitly": 12045, "musik": 28076, "ars": 29393, "borg": 28709, "##wl": 13668, "hearth": 22885, "nanjing": 21455, "breeze": 9478, "rosa": 9508, "evenings": 16241, "processed": 13995, "wilfred": 26026, "protein": 5250, "tool": 6994, "madeleine": 19324, "alternative": 4522, "mongol": 17450, "delivering": 12771, "condemned": 10033, "rainer": 28035, "ukrainian": 5969, "wil": 19863, "glands": 23340, "docking": 25776, "##osition": 19234, "mortals": 23844, "272": 24231, "traveller": 21916, "##rak": 16555, "merit": 7857, "novak": 19580, "loft": 19459, "bulldogs": 15120, "avalanche": 18846, "##\u5b80": 30344, "mag": 23848, "##nard": 16564, "devil": 6548, "diplomacy": 17610, "transports": 19003, "##ulous": 16203, "##inge": 23496, "streaks": 21295, "aluminum": 13061, "liable": 20090, "neighbor": 11429, "##cape": 19464, "interesting": 5875, "liquids": 26820, "##personal": 28823, "charley": 20430, "shu": 18454, "deeper": 6748, "##tucket": 29315, "##l": 2140, "##rial": 14482, "##\u00a6": 29649, "issuing": 15089, "misunderstanding": 24216, "[unused330]": 335, "##lie": 8751, "1957": 3890, "rubbed": 7503, "board": 2604, "abilities": 7590, "kathmandu": 28045, "throat": 3759, "transfers": 15210, "cabbage": 28540, "abundance": 14531, "##rred": 20529, "sculptor": 10160, "limbs": 10726, "##isms": 22556, "[unused248]": 253, "bout": 10094, "myrtle": 21381, "proves": 16481, "hull": 6738, "protect": 4047, "##\u5bae": 30350, "[unused677]": 682, "fueled": 17999, "attracted": 6296, "cannabis": 17985, "bree": 21986, "reproduce": 21376, "centennial": 15483, "mare": 11941, "ian": 4775, "findings": 9556, "##outh": 17167, "dna": 6064, "budge": 24981, "france": 2605, "murder": 4028, "embracing": 23581, "jolly": 22193, "stature": 21120, "marsden": 29558, "##croft": 14716, "##udeau": 27627, "letter": 3661, "##mental": 26901, "kilometer": 20595, "rodriguez": 9172, "condoms": 29094, "cookies": 16324, "armory": 24139, "##ain": 8113, "rockwell": 25235, "oleg": 25841, "smash": 15132, "jimmie": 24671, "[unused588]": 593, "agony": 12812, "falcons": 14929, "mcconnell": 28514, "rejoined": 14311, "##ways": 14035, "loans": 10940, "ruined": 9868, "alyssa": 26442, "##vard": 25911, "excess": 9987, "##ben": 10609, "cease": 13236, "episcopal": 9134, "##aceous": 25560, "scotia": 9676, "\u0290": 1136, "seattle": 5862, "android": 11924, "00pm": 27995, "gill": 12267, "reaper": 19559, "poems": 5878, "poppy": 19745, "##odle": 26156, "fired": 5045, "##night": 15864, "vehicles": 4683, "malaysian": 11843, "unpublished": 19106, "commentaries": 21241, "persuasion": 27577, "c1": 27723, "##gly": 25643, "bubble": 11957, "athletics": 6482, "gorilla": 23526, "spanning": 13912, "forested": 15205, "leader": 3003, "rats": 11432, "##omp": 25377, "plot": 5436, "21st": 7398, "cree": 27831, "reliable": 10539, "##sko": 21590, "zoom": 24095, "coal": 5317, "##pes": 10374, "weeks": 3134, "offense": 10048, "girls": 3057, "booming": 24716, "rendition": 19187, "1844": 9730, "obstruction": 27208, "##rnier": 28484, "[unused691]": 696, "##\u0291": 29703, "pol": 14955, "fraternity": 13577, "lazarus": 23623, "looked": 2246, "lacey": 16355, "##sz": 17112, "featuring": 3794, "\u05e1": 1258, "manifested": 24906, "respectable": 19416, "##tees": 28313, "[unused360]": 365, "##erated": 16848, "serra": 22737, "software": 4007, "interviews": 7636, "##opus": 24676, "##ir": 4313, "ambush": 15283, "[unused122]": 127, "referencing": 28789, "harmless": 19741, "blindness": 26290, "##tures": 22662, "harassment": 16011, "##rd": 4103, "##tial": 20925, "outreach": 15641, "merrill": 16239, "class": 2465, "vicar": 12340, "von": 3854, "##\u2606": 30148, "shark": 11420, "comment": 7615, "kowalski": 28874, "ingrid": 22093, "gradient": 17978, "loosen": 29476, "\u0bc1": 1397, "funny": 6057, "source": 3120, "##ags": 26454, "affiliate": 8727, "omnibus": 27284, "anxious": 11480, "##stellar": 29028, "airbus": 20901, "virtue": 11870, "flores": 17343, "[unused280]": 285, "tequila": 26791, "pension": 11550, "propeller": 15692, "jai": 17410, "##lov": 14301, "janata": 20308, "\u0111": 1102, "boxing": 8362, "\u2080": 1547, "eileen": 20495, "[unused304]": 309, "temple": 3379, "\u6226": 1856, "clung": 14752, "warring": 28509, "salesman": 18968, "reception": 7684, "they": 2027, "soup": 11350, "##phic": 17926, "editor": 3559, "mexico": 3290, "elevators": 19406, "frowns": 29303, "dial": 13764, "##tagram": 23091, "tracing": 16907, "aloud": 12575, "tully": 25724, "slovakia": 10991, "archdeacon": 21742, "appreciate": 9120, "industrial": 3919, "apes": 27754, "##bf": 29292, "offspring": 13195, "hearing": 4994, "islam": 7025, "ferns": 25715, "watt": 15231, "centenary": 17705, "inspire": 18708, "[unused240]": 245, "inline": 23881, "trenches": 19874, "weighted": 18215, "kitchener": 27154, "gardner": 11764, "ronnie": 11688, "##body": 23684, "resultant": 28573, "gay": 5637, "##\u5289": 30303, "photographers": 17008, "border": 3675, "bony": 22678, "##yar": 13380, "prisoners": 5895, "reacted": 14831, "busiest": 20530, "mach": 24532, "##pton": 15857, "chilean": 12091, "videos": 6876, "files": 6764, "[unused519]": 524, "livingston": 14109, "##\u110a": 29998, "educators": 19156, "tatiana": 22725, "hey": 4931, "##bor": 12821, "excellent": 6581, "##test": 22199, "mostly": 3262, "##ification": 9031, "accustomed": 17730, "cleared": 5985, "##sman": 11512, "leiden": 20329, "story": 2466, "##pw": 28400, "examine": 11628, "downfall": 22252, "##ross": 25725, "switching": 11991, "watch": 3422, "collaboration": 5792, "cake": 9850, "inclusive": 18678, "[unused699]": 704, "flu": 19857, "##\u099a": 29892, "plymouth": 10221, "strait": 11195, "grotesque": 27707, "##rbin": 27366, "peer": 8152, "client": 7396, "claws": 10702, "cartridges": 22998, "chapman": 11526, "slapping": 22021, "civil": 2942, "cheshire": 13789, "hungary": 5872, "arguing": 9177, "fourth": 2959, "burma": 11050, "##copic": 26461, "dame": 8214, "slumped": 14319, "infused": 29592, "##hei": 26036, "calmed": 20869, "##codes": 23237, "stack": 9991, "filtering": 22910, "colder": 21399, "dug": 8655, "sourced": 23184, "northwards": 27592, "paralyzed": 22348, "https": 16770, "confrontation": 13111, "forearm": 16148, "python": 18750, "transparent": 13338, "opposing": 10078, "attempt": 3535, "jacob": 6213, "atom": 13787, "trump": 8398, "internationals": 27340, "intellect": 24823, "rte": 20375, "ravi": 16806, "revival": 6308, "warrior": 6750, "means": 2965, "such": 2107, "##\u2605": 30147, "rebuilt": 7183, "##xx": 20348, "shrug": 13409, "##vac": 24887, "wolverine": 22162, "topography": 21535, "8": 1022, "looming": 23430, "requirement": 9095, "quezon": 26564, "cinnamon": 21229, "branched": 21648, "1761": 21364, "clark": 5215, "narrated": 17356, "guy": 3124, "competitors": 10159, "darrell": 23158, "replay": 15712, "creeping": 18266, "##breakers": 27623, "barons": 21487, "kitchen": 3829, "chorus": 7165, "serving": 3529, "##\u0bbf": 29932, "##roll": 28402, "earth": 3011, "sore": 14699, "mala": 28935, "##orted": 15613, "congestion": 20176, "deity": 12764, "mona": 13813, "kan": 22827, "failed": 3478, "##kney": 26993, "elimination": 9614, "portrait": 6533, "##k": 2243, "excel": 24970, "wires": 14666, "twisting": 12814, "weighed": 12781, "##ographic": 13705, "amnesty": 16154, "illness": 7355, "dfb": 28894, "successive": 11165, "chloride": 19057, "probation": 19703, "nation": 3842, "nell": 20970, "controversy": 6704, "##ifying": 11787, "m1": 23290, "choral": 14564, "taxon": 28521, "##rity": 15780, "whore": 17219, "##lberg": 22927, "ammunition": 9290, "behave": 16582, "trooper": 28224, "##lla": 4571, "pounded": 13750, "jaipur": 28355, "[unused870]": 875, "##\u6211": 30381, "situation": 3663, "ecosystem": 16927, "horrors": 22812, "disdain": 25134, "##grave": 12830, "edgar": 9586, "hokkaido": 20826, "northeast": 4794, "##static": 16677, "rey": 12569, "marines": 9622, "crashes": 19119, "missionary": 8696, "##\u7ae0": 30458, "conversation": 4512, "flora": 10088, "1985": 3106, "orchid": 15573, "geographic": 9183, "bates": 11205, "feasibility": 24010, "[unused65]": 66, "barclay": 23724, "returning": 4192, "wave": 4400, "##wana": 21761, "##ography": 9888, "walled": 17692, "[unused950]": 955, "##iah": 12215, "[unused129]": 134, "##tina": 13770, "kayla": 26491, "debut": 2834, "respectful": 26438, "hooks": 18008, "##unda": 18426, "overlap": 17702, "momentarily": 16032, "yue": 27163, "confirms": 23283, "##fide": 20740, "clerk": 7805, "##\u06ba": 29843, "primate": 25662, "increasingly": 6233, "partial": 7704, "prick": 24858, "gather": 8587, "lead": 2599, "assigned": 4137, "partnerships": 13797, "##eurs": 26744, "thrilled": 16082, "##itaire": 29422, "##ato": 10610, "caesar": 11604, "initiate": 17820, "yugoslavia": 8936, "[unused791]": 796, "torino": 24737, "valve": 10764, "##wat": 24281, "##iance": 28335, "ford": 4811, "zeke": 18270, "##wu": 16050, "conclude": 16519, "##yra": 19563, "aces": 20232, "[unused782]": 787, "ju": 18414, "385": 24429, "recalling": 21195, "##bn": 24700, "##mbs": 29232, "hall": 2534, "studied": 3273, "talent": 5848, "##wang": 16600, "dominican": 10104, "dario": 26800, "drifting": 15013, "1884": 6988, "santa": 4203, "carving": 18441, "guillermo": 21070, "\u05d8": 1249, "227": 21489, "##mbre": 19908, "##bility": 8553, "uninhabited": 24749, "winds": 7266, "##\u6cd5": 30427, "pitted": 25895, "dictated": 23826, "commence": 22825, "##cute": 26869, "hapoel": 24208, "kerry": 11260, "\u09b0": 1372, "sparhawk": 13709, "crime": 4126, "##chel": 15721, "kidnap": 22590, "##ute": 10421, "believe": 2903, "310": 17196, "##ractive": 26884, "ur": 24471, "testify": 19919, "staffordshire": 17052, "175": 12862, "conjecture": 22647, "25": 2423, "squire": 21263, "cultivation": 13142, "vertical": 7471, "owned": 3079, "salvage": 18340, "violet": 8766, "##ship": 9650, "date": 3058, "electorate": 13694, "graduating": 6800, "1688": 24082, "exists": 6526, "mysterious": 8075, "tattoos": 18395, "hurricanes": 17035, "\u00a32": 21853, "coached": 8868, "nerves": 10627, "gray": 3897, "talking": 3331, "##antly": 15706, "##eers": 22862, "\u79c0": 1928, "peacefully": 21614, "straw": 13137, "otter": 22279, "catering": 18640, "##llin": 21202, "f": 1042, "sampled": 18925, "awakening": 16936, "ga": 11721, "[unused641]": 646, "1720": 23535, "poets": 9736, "##chaft": 29043, "apologetic": 29352, "australian": 2827, "perfectly": 6669, "tracts": 22069, "##kota": 27380, "phillip": 10852, "biceps": 27947, "aberdeen": 12080, "nine": 3157, "gonzalez": 10121, "##cca": 16665, "fearful": 19725, "##fies": 14213, "pieces": 4109, "##\u0430": 10260, "crambidae": 21585, "veins": 9607, "djs": 23837, "\u1d63": 1508, "spheres": 19885, "eureka": 21142, "[unused758]": 763, "##mada": 23574, "plaza": 8232, "skirts": 18184, "[unused900]": 905, "##erted": 28728, "omar": 13192, "0": 1014, "linguistic": 12158, "##g": 2290, "tender": 8616, "tries": 5363, "edith": 13257, "colorado": 5169, "dem": 17183, "shutting": 17521, "sings": 10955, "cp": 18133, "beech": 21760, "hoffmann": 24437, "softly": 5238, "##lot": 10994, "crossed": 4625, "link": 4957, "[unused38]": 39, "stimuli": 22239, "llc": 11775, "transcript": 24051, "do": 2079, "jalan": 28410, "soviet": 3354, "[unused63]": 64, "lloyd": 6746, "##rka": 22379, "reduction": 7312, "controls": 7711, "freedom": 4071, "##uti": 21823, "demi": 27668, "shares": 6661, "##urian": 29091, "orbits": 20347, "levant": 24485, "inequality": 16440, "encourages": 16171, "##\u4f8d": 30291, "trio": 7146, "funded": 6787, "niall": 21889, "marble": 7720, "marathon": 8589, "croydon": 21838, "haas": 22996, "clues": 15774, "[unused591]": 596, "tour": 2778, "1714": 25241, "prevention": 9740, "fellowship": 7881, "unlike": 4406, "##kor": 21815, "\u00a2": 1068, "payton": 28666, "##imated": 20592, "##nic": 8713, "networking": 14048, "##phate": 24556, "ventilation": 19536, "reactions": 9597, "intelligence": 4454, "##elle": 14774, "##cho": 9905, "##\u00f8": 16415, "luftwaffe": 17740, "liar": 16374, "dub": 12931, "flights": 7599, "\u093f": 1341, "refused": 4188, "##uaries": 22579, "[unused604]": 609, "[CLS]": 101, "##icated": 17872, "mazda": 25286, "boon": 23264, "grim": 11844, "other": 2060, "navigable": 28538, "balloon": 13212, "eliza": 13234, "shillings": 29332, "182": 17691, "##sor": 21748, "guess": 3984, "consonant": 18265, "reversal": 23163, "viewpoint": 21386, "uno": 27776, "##hur": 24572, "hits": 4978, "hut": 12570, "rug": 20452, "christie": 13144, "coincided": 18616, "ds": 16233, "documentation": 12653, "carpathian": 26349, "##jian": 27685, "1626": 28818, "tick": 16356, "thin": 4857, "##utter": 26878, "differentiation": 20582, "aviation": 5734, "##sson": 7092, "unionist": 17104, "cigarettes": 15001, "[unused299]": 304, "[unused741]": 746, "signatures": 16442, "jolted": 28801, "rosie": 15820, "##orescence": 20030, "##kovsky": 23829, "shanghai": 8344, "hardin": 27522, "shallow": 8467, "negatively": 19762, "axel": 18586, "have": 2031, "pointing": 7302, "maj": 16686, "##bie": 11283, "##mity": 16383, "invalid": 19528, "insanity": 19272, "translations": 11913, "[unused414]": 419, "seal": 7744, "result": 2765, "65": 3515, "lordship": 20698, "piss": 18138, "regularly": 5570, "dion": 19542, "##lists": 27103, "##xley": 20959, "christy": 21550, "leaped": 16900, "basilica": 13546, "##35": 19481, "keith": 6766, "radiation": 8249, "knock": 7324, "254": 22234, "berwick": 24957, "rhineland": 21640, "works": 2573, "nile": 15179, "organisations": 8593, "tomas": 12675, "\u6f22": 1904, "##fat": 27753, "herbert": 7253, "consonants": 19694, "licensed": 7000, "blair": 10503, "reeve": 20726, "holdings": 9583, "feeding": 8521, "kari": 27356, "isla": 25340, "clans": 16411, "ditch": 14033, "sequencing": 24558, "hmm": 17012, "joan": 7437, "[unused373]": 378, "groves": 21695, "[unused58]": 59, "##ega": 29107, "believed": 3373, "\u1111": 1468, "masonic": 21152, "poe": 18922, "curtains": 14694, "##ik": 5480, "[unused461]": 466, "students": 2493, "hectare": 20406, "plans": 3488, "goose": 13020, "coffee": 4157, "rt": 19387, "##owed": 15096, "garry": 21507, "residing": 7154, "motivation": 14354, "##ul": 5313, "ascension": 18071, "##tructing": 26310, "www": 7479, "##phila": 26083, "expand": 7818, "promenade": 26815, "##hes": 15689, "spoke": 3764, "vacant": 10030, "beverley": 29057, "##nst": 23808, "##\u306b": 30194, "lay": 3913, "\u0574": 1229, "threshold": 11207, "enthusiasts": 20305, "crate": 27297, "##von": 17789, "1920": 4444, "eruptions": 28448, "brandon": 8825, "stalker": 23883, "seeker": 29444, "recommends": 26021, "##oro": 14604, "exciting": 10990, "milan": 6954, "911": 19989, "speeds": 10898, "421": 29403, "nevada": 7756, "pupils": 7391, "integrity": 11109, "bremen": 16314, "##itte": 27100, "dorsey": 27332, "[unused558]": 563, "coordinate": 13530, "defendants": 16362, "oricon": 22237, "metaphor": 19240, "##ouse": 15441, "brightly": 14224, "horticultural": 26235, "1741": 25280, "[unused172]": 177, "generations": 8213, "supervisors": 22565, "graded": 21976, "##chs": 18069, "caden": 23600, "antiquity": 16433, "##sky": 5874, "harbor": 6496, "##ulia": 20922, "bobbed": 29579, "##pad": 15455, "##urities": 29366, "huddersfield": 19715, "[unused481]": 486, "gleaming": 18242, "object": 4874, "##zek": 24506, "[unused806]": 811, "exiles": 27127, "abbas": 17532, "intruder": 22841, "wcw": 24215, "[unused716]": 721, "rourke": 24400, "hannibal": 24181, "around": 2105, "olivia": 7710, "darting": 24567, "\u2075": 1539, "317": 26628, "##\u05db": 29798, "##hoff": 17896, "##45": 19961, "blog": 9927, "[unused282]": 287, "##utation": 26117, "possibilities": 12020, "vs": 5443, "apt": 26794, "auburn": 12704, "aviator": 24035, "colorful": 14231, "veterans": 8244, "commended": 22429, "##nden": 25915, "##olin": 18861, "frequency": 6075, "mandy": 18193, "##yr": 12541, "enzo": 26218, "##tained": 28055, "coalition": 6056, "associate": 5482, "timely": 23259, "relaxed": 8363, "logged": 26618, "dams": 17278, "[unused917]": 922, "paramilitary": 22258, "request": 5227, "fragile": 13072, "truncated": 25449, "instituto": 22596, "pia": 24624, "touchdowns": 10183, "bias": 13827, "outcome": 9560, "parents": 3008, "##pile": 22090, "##rer": 14544, "broughton": 29187, "hydrogen": 9732, "penalties": 12408, "##lines": 12735, "##lux": 25148, "##taka": 28412, "athletes": 7576, "realize": 5382, "hc": 16731, "##hedral": 27310, "##ayo": 28852, "eva": 9345, "##tracted": 24301, "deterioration": 26118, "driver": 4062, "disclose": 26056, "thereof": 21739, "limiting": 14879, "##pol": 18155, "nur": 27617, "condemnation": 26248, "rosenberg": 21069, "discuss": 6848, "swat": 25414, "##uca": 18100, "floats": 24885, "momma": 23603, "tyson": 19356, "[unused832]": 837, "television": 2547, "roma": 12836, "bien": 29316, "overtook": 28920, "eta": 27859, "##\u30fc": 30265, "sentencing": 23280, "goddess": 7804, "lawn": 10168, "##\u0452": 29758, "churchill": 10888, "nicaragua": 15448, "##zy": 9096, "parapet": 27372, "rutgers": 18607, "guerrilla": 15722, "1728": 26833, "[unused724]": 729, "connacht": 27062, "gabon": 23129, "\u2297": 1613, "sigh": 6682, "vilnius": 20513, "avenge": 24896, "upgrade": 12200, "wilton": 26407, "disturbed": 12491, "##ania": 13241, "choked": 12444, "moth": 5820, "post": 2695, "##ku": 5283, "amendments": 16051, "real": 2613, "\u099c": 1358, "unity": 8499, "elite": 7069, "drugs": 5850, "intern": 25204, "quarterly": 12174, "bern": 16595, "\u00b3": 1083, "initiated": 7531, "gaping": 21226, "ensemble": 7241, "##rri": 18752, "listen": 4952, "scholarship": 6566, "guillaume": 20061, "##iol": 20282, "##sworth": 12255, "##zard": 26154, "##omic": 22026, "publicized": 24928, "##\u057a": 29780, "whatever": 3649, "deals": 9144, "forthcoming": 16875, "industries": 6088, "provides": 3640, "\u0252": 1111, "coefficient": 19064, "odds": 10238, "listened": 7791, "spirited": 24462, "cellar": 15423, "funnel": 25102, "apologized": 17806, "minor": 3576, "##\u2264": 30135, "hectares": 9076, "overheard": 20443, "[unused101]": 106, "##oe": 8913, "leigh": 11797, "mesh": 20437, "photographer": 8088, "presence": 3739, "9": 1023, "boards": 7923, "flutter": 23638, "petra": 20953, "1877": 7557, "portfolio": 11103, "##ght": 13900, "blushing": 25771, "muscles": 6650, "131": 14677, "skye": 16590, "spelling": 11379, "biological": 6897, "booth": 9065, "yin": 18208, "polled": 26847, "[unused366]": 371, "253": 23254, "bayou": 24818, ">": 1028, "alan": 5070, "\u2212": 1597, "##dara": 25329, "knights": 7307, "designed": 2881, "enthusiastically": 24935, "margarita": 24570, "[unused388]": 393, "quantum": 8559, "downing": 22501, "threaded": 26583, "##werk": 29548, "[unused346]": 351, "explain": 4863, "bewildered": 24683, "ira": 11209, "##rim": 20026, "##tov": 26525, "distracting": 25012, "graham": 5846, "##rooms": 29020, "##\u30b5": 30231, "bayern": 21350, "colourful": 26102, "argyle": 26503, "##phi": 21850, "trap": 8132, "kite": 20497, "##anza": 16076, "=": 1027, "itv": 11858, "\u304b": 1651, "bog": 22132, "nightmares": 15446, "##san": 8791, "##hale": 15238, "see": 2156, "panties": 12095, "tracy": 10555, "fleming": 13779, "hampstead": 29557, "mortally": 26495, "dorset": 15367, "##leen": 24129, "colossal": 29523, "##enay": 27727, "15th": 6286, "[unused685]": 690, "thermal": 9829, "sporting": 7419, "worthy": 11007, "40": 2871, "##rift": 16338, "mound": 12048, "progressively": 20519, "flew": 5520, "dodd": 21258, "techno": 21416, "carver": 20163, "##\u306c": 30195, "current": 2783, "##ins": 7076, "sweat": 7518, "at": 2012, "arabs": 14560, "exchanging": 25620, "variations": 8358, "bergen": 12674, "winnipeg": 11093, "manifesto": 17124, "##way": 4576, "similarity": 14402, "metro": 6005, "fool": 7966, "bertie": 20743, "##llon": 22179, "##\u3072": 30199, "every": 2296, "ability": 3754, "acc": 16222, "telescopes": 28026, "chiefly": 15897, "behold": 27541, "combines": 13585, "crabs": 26076, "##km": 22287, "rooftop": 23308, "gentlemen": 11218, "combustion": 16513, "bring": 3288, "belgrade": 10291, "##ference": 25523, "##nais": 28020, "##ique": 7413, "[unused636]": 641, "russians": 12513, "disruption": 20461, "##\u10e1": 29988, "dispersal": 27602, "devoid": 22808, "royal": 2548, "nominees": 17853, "widow": 7794, "investigating": 11538, "bombardment": 10400, "[unused672]": 677, "bisexual": 22437, "yeshiva": 22142, "##iest": 10458, "francesca": 15409, "lenses": 15072, "##acio": 21361, "academies": 20994, "professionally": 12145, "departure": 6712, "cages": 27157, "reflect": 8339, "martyrs": 18945, "fearless": 22518, "##\u2044": 30070, "rees": 22131, "scales": 9539, "weekends": 13499, "humid": 14178, "boredom": 29556, "aerodrome": 23843, "swallowing": 18468, "lanes": 10914, "grow": 4982, "\u0437": 1187, "acidic": 24171, "sagged": 26719, "substance": 9415, "bowing": 26690, "copies": 4809, "preliminary": 8824, "opening": 3098, "kids": 4268, "operatives": 25631, "\u539f": 1787, "congenital": 27480, "\u0cb0": 1401, "genocide": 14052, "##eric": 22420, "[unused759]": 764, "##was": 17311, "abolished": 8961, "institut": 17126, "upwards": 14873, "end": 2203, "swelling": 18348, "vaults": 28658, "\u0153": 1107, "baltic": 11275, "practice": 3218, "historian": 5272, "soy": 25176, "sculptors": 28417, "ismail": 19214, "occupies": 14133, "boar": 24187, "realizes": 10919, "espana": 20678, "developed": 2764, "medications": 20992, "##naut": 24619, "##dine": 10672, "ra": 10958, "coloured": 11401, "ce": 8292, "##ime": 14428, "dayton": 14700, "1715": 22606, "enlightenment": 16724, "\u05da": 1251, "cord": 11601, "oils": 20631, "raced": 8255, "stein": 14233, "frazier": 26551, "traded": 7007, "pressured": 25227, "##back": 5963, "cliffs": 13333, "access": 3229, "outlets": 11730, "##tz": 5753, "##\u30bf": 30235, "shepherd": 11133, "pirate": 11304, "technique": 6028, "73": 6421, "forces": 2749, "medals": 6665, "strain": 10178, "remove": 6366, "##nel": 11877, "apostles": 19178, "framed": 10366, "police": 2610, "1000": 6694, "##co": 3597, "eugen": 29273, "illustrate": 19141, "356": 27509, "resident": 6319, "luna": 12909, "\u0434": 1184, "aware": 5204, "##ney": 5420, "spp": 26924, "onward": 15834, "[unused537]": 542, "dual": 7037, "covent": 29456, "##rien": 23144, "aleppo": 22973, "bending": 14457, "gemma": 19073, "blanket": 8768, "sympathetic": 13026, "pigs": 14695, "emperors": 19655, "kangaroo": 21652, "contents": 8417, "[unused746]": 751, "wrestled": 20615, "libertarian": 19297, "[unused408]": 413, "examiner": 19684, "outlet": 13307, "##oto": 11439, "plant": 3269, "##rks": 19987, "lifetime": 6480, "admit": 6449, "pearson": 12874, "ushered": 23815, "welsh": 6124, "hbo": 14633, "##vet": 19510, "thriving": 20319, "triple": 6420, "##\u026b": 29686, "relied": 13538, "cringed": 23952, "sampling": 16227, "overhaul": 18181, "##\u3046": 30174, "attached": 4987, "tn": 28286, "##anne": 20147, "teammates": 13220, "attain": 18759, "rattle": 23114, "practicing": 12560, "[unused720]": 725, "upgraded": 9725, "emory": 25853, "freedoms": 22467, "ned": 12311, "[unused456]": 461, "aside": 4998, "plasma": 12123, "wellesley": 25658, "conscience": 13454, "relations": 4262, "pinto": 25066, "##rika": 23778, "conquer": 16152, "characters": 3494, "battleship": 17224, "##za": 4143, "##itas": 24317, "[unused3]": 4, "davey": 20436, "regents": 22832, "157": 17403, "uta": 28981, "empowered": 26480, "1640": 21533, "conduct": 6204, "giuseppe": 12574, "anxiously": 23403, "##hot": 12326, "hilly": 22800, "conglomerate": 22453, "anand": 18887, "plaques": 28487, "agreement": 3820, "gt": 14181, "contamination": 18701, "yelling": 13175, "\u2088": 1555, "##rok": 27923, "buena": 27493, "resembled": 15881, "liking": 16663, "chester": 8812, "barbecue": 26375, "suspected": 6878, "posthumous": 19086, "issn": 23486, "particles": 9309, "fluids": 20989, "alabama": 6041, "custer": 28888, "invasive": 17503, "1785": 17262, "exhibits": 10637, "mask": 7308, "surf": 14175, "applicable": 12711, "electro": 16175, "schwarz": 29058, "prison": 3827, "sadly": 13718, "delaney": 22101, "crawl": 13529, "usd": 13751, "pharmacy": 13882, "insufficient": 13990, "##\u0f63": 29971, "##ad": 4215, "savings": 10995, "aperture": 18892, "communicated": 24162, "##phon": 20846, "netherlands": 4549, "\u00a7": 1073, "##dak": 23597, "rocco": 28167, "##ias": 7951, "cheating": 16789, "cross": 2892, "prostate": 25086, "based": 2241, "albion": 13392, "name": 2171, "\u5bae": 1824, "##ger": 4590, "lear": 26511, "##lena": 20844, "##wal": 13476, "[unused317]": 322, "reply": 7514, "barren": 20225, "##amy": 24079, "[unused527]": 532, "blogger": 28205, "thomson": 11161, "libre": 21091, "prom": 20877, "brigade": 4250, "1870s": 14896, "##mond": 11442, "##dee": 26095, "costello": 21015, "limousine": 28012, "measures": 5761, "resigning": 24642, "dh": 28144, "basil": 14732, "cozy": 26931, "450": 10332, "grace": 4519, "##base": 15058, "trade": 3119, "\u00bd": 1092, "morrow": 19084, "registered": 5068, "assassinated": 16370, "schemes": 11683, "##bots": 27014, "##\u0dba": 29940, "pad": 11687, "wrote": 2626, "\u110c": 1464, "##tension": 29048, "relocated": 7448, "##lander": 22691, "clergyman": 22232, "fifteenth": 16249, "\u0916": 1316, "periodicals": 21855, "vehicle": 4316, "municipalities": 7602, "auction": 10470, "calculus": 19276, "contribute": 9002, "printed": 6267, "werewolves": 18306, "kung": 18577, "password": 20786, "obstacles": 15314, "montagu": 26241, "wnba": 25554, "easily": 4089, "rains": 15811, "superfamily": 24169, "witty": 25591, "peggy": 14911, "cad": 28353, "child": 2775, "toned": 27604, "##se": 3366, "[unused637]": 642, "euro": 9944, "##\u05d5": 29792, "##xi": 9048, "floral": 18686, "depictions": 20818, "##cheng": 21043, "carmine": 18791, "preoccupied": 23962, "slipped": 5707, "firm": 3813, "abdullah": 14093, "prosecuted": 21651, "department": 2533, "bray": 19743, "jewelry": 11912, "nobility": 11760, "nausea": 19029, "stream": 5460, "serena": 14419, "go": 2175, "shamrock": 28782, "denote": 19090, "butte": 25024, "whom": 3183, "landowners": 20152, "crushed": 10560, "soon": 2574, "offshore": 12195, "ruled": 5451, "##ines": 10586, "disqualified": 14209, "flawless": 27503, "skater": 18815, "detached": 12230, "##\u0bb2": 29928, "citing": 8951, "##uen": 24997, "plank": 24000, "sucking": 13475, "hoffman": 15107, "pagan": 14318, "younger": 3920, "fig": 20965, "##gate": 5867, "hell": 3109, "##aring": 22397, "presley": 17229, "theirs": 17156, "setup": 16437, "yuri": 14331, "accident": 4926, "pumping": 14107, "narrator": 11185, "demonstration": 10467, "##\u6d77": 30428, "##eti": 20624, "reprised": 22598, "freestyle": 9817, "goran": 28356, "bartholomew": 19866, "mining": 5471, "ported": 27650, "##pura": 21228, "joanna": 15730, "urges": 23876, "elections": 3864, "o": 1051, "wigan": 15598, "##\u91cc": 30488, "toy": 9121, "quiz": 19461, "donald": 6221, "\u09ac": 1368, "##iaceae": 23357, "care": 2729, "##ibe": 20755, "[unused948]": 953, "##\u5143": 30295, "game": 2208, "sept": 17419, "misleading": 22369, "1977": 3355, "perspectives": 15251, "##orum": 20527, "votes": 4494, "bonnet": 24367, "poultry": 22468, "##zed": 5422, "kendra": 13812, "corner": 3420, "telegram": 23921, "\u30e9": 1731, "escape": 4019, "germany": 2762, "1777": 16144, "luck": 6735, "seeking": 6224, "intention": 6808, "##ressed": 16119, "demonstrates": 16691, "miners": 11257, "caressed": 21473, "des": 4078, "ibrahim": 13477, "##roup": 22107, "##iad": 28665, "crescent": 13152, "lamp": 10437, "37": 4261, "thud": 20605, "julian": 6426, "consensus": 10465, "relegation": 9591, "freiburg": 22871, "uss": 7234, "gan": 25957, "interruption": 24191, "##\u305f": 30187, "monsieur": 21380, "generic": 12391, "involve": 9125, "jagged": 18187, "##58": 27814, "writers": 4898, "dragging": 11920, "crowe": 25657, "thrusts": 25842, "lavender": 20920, "expansive": 25145, "italiana": 28059, "mess": 6752, "khmer": 19472, "taught": 4036, "homeless": 11573, "beit": 28236, "fling": 27655, "##\u2212": 22543, "grossed": 17500, "trucks": 9322, "psychic": 12663, "[unused695]": 700, "volga": 26459, "directions": 7826, "1926": 4881, "julien": 19290, "upper": 3356, "seeming": 16064, "condo": 25805, "##kovic": 14733, "impacted": 19209, "volcanoes": 23694, "##ich": 7033, "##page": 13704, "individuals": 3633, "##\u6a4b": 30411, "un": 4895, "undermine": 25174, "romance": 7472, "positioning": 19120, "##mins": 21266, "patterned": 25336, "##\u2083": 11622, "sky": 3712, "fred": 5965, "trying": 2667, "keller": 16155, "lighting": 7497, "[unused337]": 342, "pounds": 7038, "##ente": 15781, "amongst": 5921, "injuries": 6441, "racers": 25791, "\u30ec": 1734, "##kei": 29501, "##logies": 21615, "##tidae": 21861, "##ccus": 27631, "exploded": 9913, "veterinary": 15651, "\u2154": 1582, "ordered": 3641, "##gul": 24848, "venture": 6957, "curling": 11599, "unlikely": 9832, "##igh": 18377, "\u1d56": 1504, "##imus": 19315, "##saka": 29289, "brandenburg": 16426, "zu": 16950, "nestor": 25397, "chi": 9610, "rags": 26346, "illuminating": 27816, "frequent": 6976, "##orth": 28610, "breakout": 25129, "incredible": 9788, "beams": 13110, "decatur": 27783, "asiatic": 23983, "##<": 29629, "lisa": 7059, "emblem": 16199, "miss": 3335, "tense": 9049, "\u05d0": 1241, "yorker": 19095, "arbitration": 18010, "rejects": 19164, "tooth": 11868, "[unused161]": 166, "##itude": 18679, "##kee": 20553, "utopia": 26425, "occupy": 11494, "mated": 28795, "improvised": 19641, "madly": 29179, "pleasant": 8242, "inwardly": 28710, "##ellant": 24178, "##bird": 9001, "intel": 13420, "[unused939]": 944, "populous": 20151, "buddhism": 11388, "##trust": 24669, "##\u1d4d": 30036, "dollars": 6363, "triggering": 29170, "showcases": 27397, "optimization": 20600, "primal": 22289, "compassion": 15398, "fc": 4429, "word": 2773, "task": 4708, "##\u4e2d": 30272, "wounding": 27285, "serbia": 7238, "hearings": 19153, "parachute": 13561, "enrichment": 27226, "dressing": 11225, "unstable": 14480, "mute": 20101, "toes": 10393, "utc": 11396, "clemens": 27277, "surfaced": 15791, "dungeon": 16633, "390": 20024, "loser": 10916, "##inated": 15833, "joyce": 11830, "volkswagen": 18817, "ama": 25933, "##mani": 20799, "landscape": 5957, "cheer": 15138, "\u6751": 1878, "fascinating": 17160, "zoo": 9201, "##paper": 23298, "patricia": 10717, "chopin": 25479, "##yen": 20684, "groom": 18087, "huddled": 20258, "##lessly": 10895, "strikers": 26049, "backstroke": 28373, "##rom": 21716, "marathi": 18388, "practised": 20439, "##wave": 16535, "ramos": 18882, "university": 2118, "fined": 16981, "moran": 17866, "##his": 24158, "participated": 4194, "tq": 28816, "m\u00b2": 7030, "faso": 22773, "wal": 24547, "##vating": 26477, "##reus": 23446, "reforming": 29455, "investigate": 8556, "plug": 13354, "der": 4315, "##icio": 27113, "stamps": 12133, "dimitri": 15953, "ham": 10654, "opponent": 7116, "##gis": 17701, "activated": 8878, "##ides": 8621, "survives": 13655, "delay": 8536, "rounds": 6241, "##nging": 22373, "coasts": 20266, "incident": 5043, "discipline": 9009, "and": 1998, "flick": 17312, "10": 2184, "eponymous": 15248, "##iman": 18505, "layers": 9014, "staying": 6595, "monterey": 19860, "furnished": 19851, "\u533a": 1782, "##cap": 17695, "soaking": 22721, "consult": 23363, "county": 2221, "##\u1d43": 30032, "kaitlyn": 28584, "militias": 29271, "\u0ba8": 1386, "##sby": 14478, "[unused142]": 147, "installment": 18932, "##\u0937": 29873, "1896": 6306, "soul": 3969, "outlined": 14801, "london": 2414, "monk": 8284, "\u30c1": 1710, "between": 2090, "##eye": 17683, "retaining": 12823, "dissertation": 14481, "tails": 17448, "##uld": 21285, "overly": 15241, "cuff": 26450, "nebraska": 8506, "em": 7861, "papers": 4981, "ashe": 13402, "grunt": 20696, "cyclones": 26069, "thirds": 12263, "harmonica": 16527, "sealed": 10203, "harta": 26283, "flying": 3909, "jokes": 13198, "waistband": 27553, "petitioned": 22527, "behavioral": 14260, "aboriginal": 9757, "showered": 23973, "invincible": 25018, "forcing": 6932, "reins": 19222, "davy": 23255, "outfits": 22054, "folks": 12455, "dislike": 18959, "wb": 25610, "##\u1d65": 30045, "achieving": 10910, "jax": 13118, "subconscious": 27952, "km": 2463, "##me": 4168, "##\u00d7": 26306, "##pd": 17299, "phases": 12335, "turnover": 20991, "mathematical": 8045, "##chee": 25923, "shifter": 18189, "insistent": 29204, "\u3002": 1636, "desert": 5532, "determines": 16463, "africans": 18076, "havre": 28890, "array": 9140, "##anger": 25121, "courts": 5434, "viable": 14874, "transvaal": 28336, "reyes": 12576, "components": 6177, "yahoo": 20643, "134": 15170, "\u5ddd": 1835, "jockey": 13989, "sire": 15785, "sanchez": 10568, "uncomfortable": 8796, "flaming": 19091, "unified": 10562, "reginald": 14435, "societe": 18341, "##sin": 11493, "damages": 12394, "ambassador": 6059, "##ping": 4691, "plague": 11629, "##con": 8663, "finally": 2633, "##ual": 8787, "legislatures": 27977, "surpassed": 15602, "basket": 10810, "##ters": 7747, "upgrades": 18739, "globalization": 24370, "anthropologist": 21571, "catalina": 22326, "##ette": 7585, "##\u98df": 30504, "darts": 17493, "##kh": 10023, "pearls": 21944, "careers": 10922, "overshadowed": 28604, "##wine": 21924, "anita": 12918, "praises": 27128, "##tropical": 25528, "\u028e": 1135, "aarhus": 29173, "radial": 15255, "\u767a": 1914, "numbers": 3616, "unauthorized": 24641, "explored": 10641, "convey": 16636, "calvin": 11130, "affiliated": 6989, "[unused904]": 909, "##\u056f": 29774, "quotes": 16614, "termination": 18287, "rehearsal": 17887, "lawsuits": 20543, "[unused975]": 980, "intercepted": 16618, "[unused529]": 534, "advancing": 10787, "steps": 4084, "namesake": 17283, "playwright": 11170, "qc": 25196, "bowled": 19831, "tehsil": 20751, "107": 10550, "lam": 16983, "porter": 8716, "microwave": 18302, "skies": 15717, "nehru": 23556, "listed": 3205, "[unused683]": 688, "definitions": 15182, "restrictive": 25986, "yun": 22854, "stacked": 16934, "##chenko": 25872, "##\u20b1": 30103, "##\u03b4": 29722, "##bi": 5638, "coastal": 5780, "theology": 8006, "\u65b9": 1863, "tanker": 20135, "opener": 16181, "##lwyn": 29287, "maximum": 4555, "prematurely": 28179, "##ches": 8376, "##inda": 23938, "authorised": 19256, "bordered": 11356, "##inator": 23207, "counterattack": 27835, "daughters": 5727, "aren": 4995, "\u0f51": 1428, "##gnon": 26977, "heritage": 4348, "sinister": 16491, "##movable": 25661, "##\u2ebc": 30159, "##ssed": 29417, "plastics": 26166, "##ty": 3723, "blankets": 15019, "fifty": 5595, "hailed": 16586, "youthful": 22446, "secretly": 10082, "##wide": 22517, "play": 2377, "coding": 16861, "##zuki": 24015, "headquartered": 9403, "sd": 17371, "##dier": 24612, "bore": 8501, "##\u20ac": 30102, "materials": 4475, "##ri": 3089, "dissolution": 12275, "exhibitions": 8596, "##ami": 10631, "##cured": 19405, "1871": 7428, "jaguars": 24017, "credentials": 22496, "[unused643]": 648, "wealthy": 7272, "##kow": 24144, "paddle": 20890, "##oin": 28765, "snout": 17291, "detachment": 11009, "jamaica": 9156, "wear": 4929, "##el": 2884, "[unused380]": 385, "prefect": 19402, "60s": 20341, "tractors": 28292, "fable": 28458, "sir": 2909, "\u571f": 1801, "willingness": 19732, "burke": 9894, "fishery": 22880, "compared": 4102, "monique": 26194, "approx": 22480, "macbeth": 25182, "walsall": 29054, "canonical": 18562, "napier": 21320, "##escence": 28964, "criteria": 9181, "boys": 3337, "##pic": 24330, "lizzie": 15860, "##stick": 21354, "##lc": 15472, "uganda": 10031, "##nami": 28987, "surrendered": 10795, "##lis": 6856, "invade": 18445, "switched": 7237, "barron": 23594, "matteo": 24713, "##nets": 22781, "riga": 17557, "epic": 8680, "##mons": 16563, "1973": 3381, "ecstasy": 19069, "himalayas": 26779, "bicycles": 21066, "ecole": 12431, "##bread": 27035, "desmond": 16192, "chris": 3782, "lester": 14131, "##fb": 26337, "104": 9645, "council": 2473, "setting": 4292, "##29": 24594, "actor": 3364, "jews": 5181, "coil": 17085, "##rton": 11715, "padua": 24941, "coated": 15026, "constituency": 5540, "hazard": 15559, "##anum": 27975, "flare": 17748, "##orne": 23846, "dresses": 14464, "wiener": 25072, "fisheries": 13424, "rower": 21984, "immediately": 3202, "paso": 17161, "scanning": 13722, "event": 2724, "##nko": 16107, "##cycle": 23490, "yankee": 17652, "iata": 9833, "rival": 6538, "1967": 3476, "hugo": 9395, "ratification": 27369, "supplier": 17024, "hosted": 4354, "1770": 17711, "robber": 27307, "nature": 3267, "markus": 23030, "job": 3105, "reliance": 17975, "unanimous": 13604, "vested": 26003, "cl": 18856, "##crest": 25313, "mathews": 23287, "rules": 3513, "##ral": 7941, "zones": 10019, "aztec": 25245, "##dity": 25469, "mei": 19734, "wireless": 9949, "tent": 9311, "##lewood": 26580, "##\u30ad": 30227, "238": 22030, "##uve": 22909, "52": 4720, "gloucester": 13370, "butter": 12136, "specifies": 27171, "bomb": 5968, "animal": 4111, "##ghton": 21763, "##ische": 13719, "khalifa": 27925, "europa": 12124, "shortstop": 25359, "##\u0578": 29779, "1944": 3646, "##chan": 14856, "[unused976]": 981, "##sian": 17043, "35th": 20198, "jeremiah": 17526, "##verse": 16070, "medication": 14667, "geraldine": 26987, "complaining": 17949, "speaking": 4092, "##fulness": 20938, "##\u0b95": 29918, "sealing": 23038, "##li": 3669, "##anta": 26802, "month": 3204, "phrases": 15672, "bikini": 20345, "dry": 4318, "##ces": 9623, "taluk": 23140, "yacht": 12187, "raided": 18784, "methyl": 25003, "##gative": 26792, "##aire": 14737, "##ulata": 18060, "constant": 5377, "mold": 18282, "lincoln": 5367, "lamps": 14186, "##olt": 27914, "##\u5408": 30318, "risks": 10831, "##uber": 21436, "gong": 17242, "donation": 13445, "##bm": 25526, "boycott": 17757, "##pired": 21649, "mandatory": 10915, "##rba": 28483, "oppose": 15391, "pressed": 4508, "overseas": 6931, "##aca": 19629, "eyelashes": 25150, "levi": 11902, "##ution": 13700, "home": 2188, "buffalo": 6901, "##ine": 3170, "##abas": 27537, "##kshi": 27488, "terry": 6609, "panted": 28149, "##ital": 18400, "heating": 10808, "##uted": 12926, "broad": 5041, "shifters": 21537, "##quay": 25575, "rainforest": 18951, "townland": 23635, "##eger": 26320, "pembroke": 21457, "rouge": 12801, "##\u0638": 29829, "az": 17207, "bhutan": 18768, "argus": 25294, "oro": 20298, "sasha": 14673, "gulp": 26546, "##otto": 23052, "##yoshi": 19196, "theoretically": 22634, "disney": 6373, "boarding": 9405, "flip": 11238, "[unused971]": 976, "[unused521]": 526, "roche": 20162, "memoir": 12558, "kwan": 27741, "socialist": 6102, "ponder": 29211, "favor": 5684, "[unused132]": 137, "creators": 17277, "ecological": 12231, "ing": 13749, "universities": 5534, "cyprus": 9719, "luggage": 17434, "cfl": 18830, "toss": 10055, "##onic": 12356, "glow": 8652, "characterised": 17253, "milne": 24377, "table": 2795, "vibrated": 27801, "device": 5080, "##suit": 28880, "casualty": 19844, "233": 22115, "carl": 5529, "awhile": 19511, "ensuring": 12725, "rulers": 11117, "##\u9577": 30493, "##asurable": 28329, "##lak": 23451, "buccaneers": 21629, "fools": 18656, "itunes": 11943, "1836": 10081, "trunks": 20509, "##rts": 21217, "eu": 7327, "\u535a": 1786, "201": 16345, "names": 3415, "jarvis": 21072, "grin": 5861, "obscene": 27744, "dolphin": 17801, "hicks": 17221, "effort": 3947, "marlon": 25861, "144": 14748, "vice": 3580, "turing": 28639, "continued": 2506, "lever": 15929, "fascism": 23779, "internment": 29041, "1754": 22593, "[unused70]": 71, "rain": 4542, "exiting": 22371, "[unused861]": 866, "acton": 28794, "##\u5927": 30336, "\u0578": 1232, "vital": 8995, "tao": 20216, "fingers": 3093, "fur": 6519, "##pala": 19636, "\u0639": 1288, "[unused1]": 2, "##ioms": 29178, "jumps": 14523, "selma": 28112, "laurence": 10883, "adjusting": 19158, "rodgers": 15652, "saddle": 12279, "turquoise": 28653, "practical": 6742, "million": 2454, "xiang": 27735, "##bai": 26068, "##ore": 5686, "173": 19410, "taluka": 29512, "##rest": 28533, "blurted": 18751, "##idon": 28201, "fidelity": 22625, "sloane": 17558, "##ban": 8193, "##ingham": 16445, "143": 16065, "##uce": 18796, "dustin": 24337, "coughing": 21454, "punching": 19477, "boyfriend": 6898, "reaches": 6561, "##posed": 19155, "\u2016": 1519, "abduction": 23415, "lung": 11192, "276": 25113, "fulbright": 26695, "\u10d8": 1445, "downloaded": 22817, "newfoundland": 11944, "differed": 19541, "##\u02b2": 29707, "[unused26]": 27, "waits": 18074, "spaniards": 20999, "clapping": 27104, "wadi": 28380, "century": 2301, "gravely": 28070, "renovation": 10525, "##rdial": 25070, "tremor": 27734, "##inking": 29377, "vent": 18834, "##oese": 23379, "allowed": 3039, "truss": 24224, "trader": 17667, "[unused980]": 985, "divert": 27345, "consumption": 8381, "tanaka": 21829, "jing": 21536, "aba": 19557, "enoch": 28178, "universite": 22176, "sausage": 24165, "legion": 8009, "referred": 3615, "[unused41]": 42, "calf": 19134, "##hesis": 24124, "pronunciation": 15498, "##working": 21398, "stephanie": 11496, "macedonian": 13037, "gorgeous": 9882, "##gu": 12193, "dolphins": 13600, "1804": 13140, "godfather": 23834, "##hardt": 13778, "digging": 10443, "\u092a": 1328, "\u4e2d": 1746, "evergreen": 16899, "##rization": 26910, "is": 2003, "pleistocene": 25080, "sutherland": 14274, "##urn": 14287, "mule": 20568, "patty": 17798, "[unused669]": 674, "1016": 28707, "149": 17332, "incredibly": 11757, "assam": 15181, "forensic": 15359, "##apple": 23804, "##ckey": 29183, "##for": 29278, "arson": 24912, "graders": 23256, "114": 12457, "770": 29065, "57th": 28623, "kin": 12631, "neglected": 15486, "[unused524]": 529, "##avian": 21654, "leaning": 6729, "\u2079": 1543, "##umi": 12717, "unrelated": 15142, "backwards": 11043, "athlete": 8258, "lips": 2970, "##its": 12762, "scouts": 10158, "[unused488]": 493, "moat": 25266, "higgins": 13466, "[unused182]": 187, "401": 22649, "##iq": 18515, "andrews": 9261, "margaret": 5545, "displaced": 12936, "doomed": 20076, "nbl": 28013, "mat": 13523, "##uding": 24539, "twilight": 13132, "rosary": 28291, "deserts": 28858, "surgery": 5970, "contiguous": 25177, "signalling": 21919, "##rogen": 22991, "[unused44]": 45, "darcy": 17685, "##\u0f51": 29964, "heather": 9533, "org": 8917, "happens": 6433, "continue": 3613, "literary": 4706, "demeanor": 21745, "reduces": 13416, "160": 8148, "fails": 11896, "defense": 3639, "##20": 11387, "[unused578]": 583, "staff": 3095, "cbn": 21824, "flies": 10029, "consciously": 24447, "compares": 22963, "donna": 10972, "[unused316]": 321, "subjects": 5739, "javanese": 27344, "##stan": 12693, "martha": 9246, "deadly": 9252, "dorsal": 12759, "annexation": 18985, "##eia": 27958, "tak": 27006, "\u304f": 1653, "##atz": 20501, "artists": 3324, "203": 18540, "230": 11816, "chronological": 23472, "tempest": 22553, "##keeper": 13106, "patrick": 4754, "[unused560]": 565, "singapore": 5264, "##gn": 16206, "##real": 22852, "whole": 2878, "volta": 26089, "papal": 12156, "meanwhile": 5564, "erie": 13374, "##\u057d": 29781, "garth": 21523, "put": 2404, "slit": 18036, "##riety": 27840, "artist": 3063, "holidays": 11938, "##hold": 12640, "constabulary": 23791, "##kan": 9126, "record": 2501, "dripped": 22526, "what": 2054, "hotel": 3309, "until": 2127, "undisclosed": 18206, "panorama": 23652, "##nia": 6200, "icelandic": 14024, "hindwings": 15998, "mistakenly": 20706, "bobbie": 27731, "limestone": 9771, "##sies": 14625, "festivals": 7519, "##ceae": 9071, "wildly": 13544, "##oot": 17206, "misunderstood": 28947, "rammed": 27653, "clone": 17598, "##\u7687": 30443, "##ieri": 21939, "soluble": 24345, "ivan": 7332, "sails": 17553, "##ashi": 12914, "messages": 7696, "tammy": 19971, "##\u0679": 29838, "medical": 2966, "##chon": 24561, "kendall": 14509, "momentum": 11071, "sibling": 22941, "greek": 3306, "##\u10d3": 29977, "knows": 4282, "[unused17]": 18, "refurbishment": 24478, "\u00d7": 1095, "declaration": 8170, "##her": 5886, "purity": 18433, "\u548c": 1796, "germain": 19192, "chartered": 12443, "oz": 11472, "[unused75]": 76, "289": 27054, "eyre": 26975, "sour": 14768, "vault": 11632, "lawyers": 9559, "replaced": 2999, "##\u0261": 29682, "sylvester": 20016, "aura": 15240, "flinch": 23224, "##47": 22610, "wr": 23277, "collision": 12365, "##gut": 27920, "grange": 18203, "actress": 3883, "ascribed": 28025, "resides": 11665, "reveals": 7657, "grenada": 29153, "statues": 11342, "##zh": 27922, "dreaming": 12802, "plain": 5810, "eddy": 16645, "location": 3295, "##worthy": 13966, "1672": 27253, "households": 3911, "brien": 9848, "stayed": 4370, "pipe": 8667, "jim": 3958, "duct": 23245, "##tila": 26065, "forbid": 27206, "enjoyment": 20195, "ending": 4566, "juveniles": 25406, "##terol": 27833, "peoples": 7243, "financially": 13732, "accelerated": 14613, "padma": 23731, "epstein": 26646, "##bury": 4917, "allah": 16455, "\u0131": 1104, "airlines": 7608, "studies": 2913, "rhythm": 6348, "perceive": 23084, "clamped": 18597, "commented": 7034, "marty": 12578, "study": 2817, "##tlan": 28922, "fungus": 16622, "##cta": 25572, "bottle": 5835, "squad": 4686, "\u4eba": 1756, "reminds": 15537, "increasing": 4852, "266": 25162, "gibraltar": 12272, "integrated": 6377, "##\u044b": 29113, "witnessed": 9741, "composing": 16572, "##pm": 9737, "jens": 25093, "\u30aa": 1699, "fibre": 20962, "282": 26267, "webber": 19861, "viz": 26619, "cs": 20116, "tragedy": 10576, "gould": 14913, "exact": 6635, "sergey": 22703, "commencing": 25819, "voss": 24878, "marched": 9847, "##rai": 14995, "##fighting": 22158, "mere": 8210, "colon": 16844, "releasing": 8287, "\u2663": 1624, "sang": 6369, "futures": 17795, "richest": 18429, "prep": 17463, "prima": 21111, "attach": 22476, "paper": 3259, "aragon": 16146, "[unused96]": 97, "disgusting": 19424, "philanthropic": 25321, "freighter": 27945, "favourite": 8837, "##\u9762": 30502, "rubbing": 10137, "[unused411]": 416, "ontario": 4561, "ngc": 27645, "symmetrical": 23476, "policy": 3343, "sarawak": 21546, "screenings": 25437, "\u5fb7": 1848, "kiran": 22403, "lea": 12203, "wolverhampton": 20085, "drawing": 5059, "crooked": 15274, "counters": 24094, "appeared": 2596, "doris": 15467, "bluegrass": 21286, "vernacular": 18485, "ibm": 9980, "##balance": 26657, "##oping": 17686, "closes": 14572, "matrix": 8185, "amar": 23204, "kurdistan": 23627, "tires": 13310, "smoked": 20482, "rhetoric": 17871, "##bach": 7693, "##bay": 15907, "##tablished": 28146, "##dgets": 28682, "contrasted": 22085, "arranged": 5412, "speechless": 25146, "symphonic": 18957, "macquarie": 23903, "##cam": 28727, "initially": 3322, "insurgents": 20541, "claudia": 13479, "mcbride": 18958, "protected": 5123, "reddish": 14182, "##ivated": 21967, "councillor": 10674, "synthesis": 10752, "qatar": 12577, "##urt": 19585, "louisa": 15731, "clench": 26753, "328": 25256, "rang": 8369, "indirect": 14958, "##wicz": 21355, "com": 4012, "##\u9752": 30501, "evan": 9340, "sheer": 11591, "[unused92]": 93, "slang": 21435, "generosity": 26161, "##\u0628": 29816, "growls": 27825, "##ppy": 27659, "substances": 13978, "lineage": 13321, "##\u65e5": 30390, "terminus": 7342, "kramer": 16322, "mohawk": 22338, "gordon": 5146, "technologies": 6786, "face": 2227, "+": 1009, "##lib": 29521, "##vision": 17084, "##hin": 10606, "blake": 6511, "botanic": 27761, "precautions": 29361, "americans": 4841, "communism": 15523, "excerpt": 28142, "cap": 6178, "islands": 3470, "##sell": 23836, "participating": 8019, "herd": 14906, "##57": 28311, "weekday": 16904, "relatively": 4659, "##gon": 7446, "methodist": 8938, "[unused676]": 681, "cutter": 16343, "##itia": 29050, "[unused470]": 475, "bass": 3321, "renegade": 28463, "##gle": 9354, "holstein": 18864, "kissed": 4782, "elm": 17709, "starvation": 22611, "randall": 12813, "##tori": 29469, "155": 14168, "##rrard": 29599, "entropy": 23077, "publisher": 6674, "bypass": 11826, "glint": 25263, "##mas": 9335, "##wala": 23877, "confused": 5457, "18th": 4985, "bee": 10506, "typical": 5171, "isis": 18301, "##mate": 8585, "marek": 29318, "\u3044": 1647, "##rrigan": 28706, "denies": 23439, "ducked": 13781, "villains": 16219, "asia": 4021, "sid": 15765, "##ples": 21112, "layla": 19786, "clashes": 17783, "fein": 27132, "[unused619]": 624, "gardens": 5822, "marjorie": 21562, "issued": 3843, "soccer": 4715, "subordinate": 15144, "##opped": 27288, "riddle": 21834, "[unused206]": 211, "kiss": 3610, "luz": 26214, "##anian": 26032, "showing": 4760, "pathways": 16910, "##comb": 18274, "backyard": 16125, "intersects": 17349, "##ople": 27469, "##cas": 15671, "##ridge": 9438, "eventual": 9523, "##\u0574": 29776, "##bell": 17327, "jewish": 3644, "##kam": 27052, "luxury": 9542, "clan": 6338, "sl": 22889, "charts": 6093, "fraudulent": 27105, "informal": 11900, "benito": 23595, "\u056b": 1225, "silver": 3165, "azerbaijan": 8365, "earning": 7414, "##dic": 14808, "reversed": 11674, "hines": 25445, "[unused534]": 539, "##\u5fc4": 30376, "breeds": 15910, "115": 10630, "##ab": 7875, "\u03b2": 1156, "##ffin": 15379, "slept": 7771, "##.": 29625, "advocacy": 12288, "\u3064": 1664, "sweating": 18972, "translator": 11403, "hubert": 15346, "fours": 23817, "\u671d": 1874, "##duk": 28351, "warming": 12959, "jew": 16522, "[unused839]": 844, "crippled": 24433, "so": 2061, "##nar": 11802, "archway": 28189, "regulating": 21575, "##ment": 3672, "villain": 12700, "##grin": 24860, "cloud": 6112, "calendar": 8094, "coward": 16592, "staples": 24533, "##\u0f54": 29966, "warden": 13745, "approved": 4844, "measurement": 10903, "non": 2512, "##hian": 14204, "\u5f8c": 1846, "chapters": 9159, "[unused831]": 836, "400": 4278, "polar": 11508, "cedric": 26170, "49": 4749, "##ending": 18537, "depressed": 14777, "any": 2151, "\u5dde": 1836, "heraldic": 28867, "1796": 13885, "58": 5388, "[unused510]": 515, "##bh": 23706, "uploaded": 21345, "##?": 29632, "\u4e8c": 1752, "imperative": 23934, "##tt": 4779, "1730": 23272, "\u6c0f": 1891, "flown": 10583, "idols": 24438, "advances": 9849, "through": 2083, "\u0452": 1211, "##leg": 23115, "avoided": 9511, "[unused78]": 79, "towering": 20314, "##su": 6342, "##\u0434": 29742, "##cross": 16458, "1990": 2901, "childish": 24282, "view": 3193, "api": 17928, "agnes": 11166, "##nce": 5897, "shine": 12342, "##etched": 29574, "foxes": 24623, "bilingual": 17636, "\u2265": 1609, "mohammed": 12619, "thirteen": 7093, "suppliers": 20141, "philharmonic": 12355, "1809": 12861, "alarmed": 19260, "jeffrey": 10799, "sense": 3168, "##asi": 21369, "rf": 21792, "sell": 5271, "responsibility": 5368, "springer": 17481, "percentage": 7017, "320": 13710, "ordering": 13063, "worldwide": 4969, "stifled": 27146, "minnie": 26188, "1838": 9931, "resonance": 17011, "ava": 10927, "tactical": 8608, "umar": 27981, "tourist": 7538, "superseded": 19886, "##onte": 28040, "crops": 8765, "unemployment": 12163, "##\u0636": 29827, "[unused431]": 436, "triangles": 27189, "bargain": 17113, "syllable": 16353, "stumbled": 9845, "journeys": 19147, "##\u2098": 30096, "franchise": 6329, "route": 2799, "##ept": 23606, "fixed": 4964, "lo": 8840, "##ations": 10708, "##grating": 28183, "ben": 3841, "##\u702c": 30431, "seems": 3849, "imposing": 16625, "walk": 3328, "grandchildren": 13628, "##cat": 11266, "##ston": 7106, "##\u0e32": 29958, "clause": 11075, "drip": 27304, "lorenzo": 12484, "cochrane": 22329, "malaya": 19979, "475": 28245, "allegedly": 9382, "##ml": 19968, "laugh": 4756, "##puri": 24661, "yorkshire": 7018, "renal": 25125, "auspices": 20153, "petitions": 24320, "amassed": 22151, "gunnery": 27919, "01": 5890, "##ister": 12911, "[unused503]": 508, "pride": 6620, "stones": 6386, "gogh": 26603, "apollo": 9348, "lancashire": 9638, "doctorate": 8972, "\u96c4": 1974, "andrei": 18125, "stanton": 15845, "ambiguity": 27637, "##\u72ac": 30434, "depicting": 10775, "converge": 28314, "mcintosh": 29052, "permission": 6656, "godfrey": 18238, "bond": 5416, "petersburg": 8062, "oldies": 26826, "cohen": 9946, "cale": 21854, "##ini": 5498, "commercially": 11088, "invertebrates": 25700, "##minster": 24431, "##llation": 20382, "##iki": 17471, "she": 2016, "##rong": 17583, "lakeside": 28701, "46th": 27990, "deeds": 15616, "risked": 22374, "substantial": 6937, "antiquities": 21387, "circle": 4418, "##kali": 28613, "preacher": 14512, "[unused497]": 502, "shores": 13312, "[unused278]": 283, "herrera": 23527, "625": 22810, "panel": 5997, "horrific": 23512, "lab": 6845, "kosovo": 11491, "[unused148]": 153, "infection": 8985, "##ked": 8126, "density": 4304, "belong": 7141, "democracy": 7072, "##bola": 24290, "1900": 5141, "secretaries": 23660, "\u4e3b": 1747, "happier": 19366, "graduates": 10845, "##cure": 23887, "##\u062d": 29820, "attackers": 17857, "frances": 10360, "##kill": 15872, "curate": 27530, "favors": 21191, "deposited": 14140, "dee": 9266, "proteins": 8171, "uniformly": 27423, "adopt": 11092, "putin": 22072, "##laya": 22923, "karlsruhe": 26660, "continuous": 7142, "##has": 14949, "unprecedented": 15741, "##tham": 22536, "och": 28166, "##ilised": 21758, "siblings": 9504, "##cence": 29320, "rider": 7945, "stalked": 15858, "##finger": 20349, "nbc": 6788, "##pon": 26029, "##ress": 8303, "##rogated": 26565, "[unused15]": 16,
[...]
